{
  "version": "1.0",
  "truncation": null,
  "padding": null,
  "added_tokens": [
    {
      "id": 1,
      "content": "<pad>",
      "single_word": false,
      "lstrip": false,
      "rstrip": false,
      "normalized": false,
      "special": true
    },
    {
      "id": 2,
      "content": "\n",
      "single_word": false,
      "lstrip": false,
      "rstrip": false,
      "normalized": false,
      "special": true
    },
    {
      "id": 3,
      "content": " ",
      "single_word": false,
      "lstrip": false,
      "rstrip": false,
      "normalized": false,
      "special": true
    },
    {
      "id": 4,
      "content": "<mask>",
      "single_word": false,
      "lstrip": false,
      "rstrip": false,
      "normalized": false,
      "special": true
    }
  ],
  "normalizer": null,
  "pre_tokenizer": {
    "type": "ByteLevel",
    "add_prefix_space": false,
    "trim_offsets": true,
    "use_regex": true
  },
  "post_processor": {
    "type": "ByteLevel",
    "add_prefix_space": true,
    "trim_offsets": false,
    "use_regex": true
  },
  "decoder": {
    "type": "ByteLevel",
    "add_prefix_space": true,
    "trim_offsets": true,
    "use_regex": true
  },
  "model": {
    "type": "BPE",
    "dropout": null,
    "unk_token": null,
    "continuing_subword_prefix": null,
    "end_of_word_suffix": null,
    "fuse_unk": false,
    "byte_fallback": false,
    "ignore_merges": false,
    "vocab": {
      "": 0,
      "<pad>": 1,
      "\n": 2,
      " ": 3,
      "<mask>": 4,
      "!": 5,
      "\"": 6,
      "#": 7,
      "$": 8,
      "%": 9,
      "&": 10,
      "'": 11,
      "(": 12,
      ")": 13,
      "*": 14,
      "+": 15,
      ",": 16,
      "-": 17,
      ".": 18,
      "/": 19,
      "0": 20,
      "1": 21,
      "2": 22,
      "3": 23,
      "4": 24,
      "5": 25,
      "6": 26,
      "7": 27,
      "8": 28,
      "9": 29,
      ":": 30,
      ";": 31,
      "<": 32,
      "=": 33,
      ">": 34,
      "?": 35,
      "@": 36,
      "A": 37,
      "B": 38,
      "C": 39,
      "D": 40,
      "E": 41,
      "F": 42,
      "G": 43,
      "H": 44,
      "I": 45,
      "J": 46,
      "K": 47,
      "L": 48,
      "M": 49,
      "N": 50,
      "O": 51,
      "P": 52,
      "Q": 53,
      "R": 54,
      "S": 55,
      "T": 56,
      "U": 57,
      "V": 58,
      "W": 59,
      "X": 60,
      "Y": 61,
      "Z": 62,
      "[": 63,
      "\\": 64,
      "]": 65,
      "^": 66,
      "_": 67,
      "`": 68,
      "a": 69,
      "b": 70,
      "c": 71,
      "d": 72,
      "e": 73,
      "f": 74,
      "g": 75,
      "h": 76,
      "i": 77,
      "j": 78,
      "k": 79,
      "l": 80,
      "m": 81,
      "n": 82,
      "o": 83,
      "p": 84,
      "q": 85,
      "r": 86,
      "s": 87,
      "t": 88,
      "u": 89,
      "v": 90,
      "w": 91,
      "x": 92,
      "y": 93,
      "z": 94,
      "{": 95,
      "|": 96,
      "}": 97,
      "~": 98,
      "¡": 99,
      "¢": 100,
      "£": 101,
      "¤": 102,
      "¥": 103,
      "¦": 104,
      "§": 105,
      "¨": 106,
      "©": 107,
      "ª": 108,
      "«": 109,
      "¬": 110,
      "®": 111,
      "¯": 112,
      "°": 113,
      "±": 114,
      "²": 115,
      "³": 116,
      "´": 117,
      "µ": 118,
      "¶": 119,
      "·": 120,
      "¸": 121,
      "¹": 122,
      "º": 123,
      "»": 124,
      "¼": 125,
      "½": 126,
      "¾": 127,
      "¿": 128,
      "À": 129,
      "Á": 130,
      "Â": 131,
      "Ã": 132,
      "Ä": 133,
      "Å": 134,
      "Æ": 135,
      "Ç": 136,
      "È": 137,
      "É": 138,
      "Ê": 139,
      "Ë": 140,
      "Ì": 141,
      "Í": 142,
      "Î": 143,
      "Ï": 144,
      "Ð": 145,
      "Ñ": 146,
      "Ò": 147,
      "Ó": 148,
      "Ô": 149,
      "Õ": 150,
      "Ö": 151,
      "×": 152,
      "Ø": 153,
      "Ù": 154,
      "Ú": 155,
      "Û": 156,
      "Ü": 157,
      "Ý": 158,
      "Þ": 159,
      "ß": 160,
      "à": 161,
      "á": 162,
      "â": 163,
      "ã": 164,
      "ä": 165,
      "å": 166,
      "æ": 167,
      "ç": 168,
      "è": 169,
      "é": 170,
      "ê": 171,
      "ë": 172,
      "ì": 173,
      "í": 174,
      "î": 175,
      "ï": 176,
      "ð": 177,
      "ñ": 178,
      "ò": 179,
      "ó": 180,
      "ô": 181,
      "õ": 182,
      "ö": 183,
      "÷": 184,
      "ø": 185,
      "ù": 186,
      "ú": 187,
      "û": 188,
      "ü": 189,
      "ý": 190,
      "þ": 191,
      "ÿ": 192,
      "Ā": 193,
      "ā": 194,
      "Ă": 195,
      "ă": 196,
      "Ą": 197,
      "ą": 198,
      "Ć": 199,
      "ć": 200,
      "Ĉ": 201,
      "ĉ": 202,
      "Ċ": 203,
      "ċ": 204,
      "Č": 205,
      "č": 206,
      "Ď": 207,
      "ď": 208,
      "Đ": 209,
      "đ": 210,
      "Ē": 211,
      "ē": 212,
      "Ĕ": 213,
      "ĕ": 214,
      "Ė": 215,
      "ė": 216,
      "Ę": 217,
      "ę": 218,
      "Ě": 219,
      "ě": 220,
      "Ĝ": 221,
      "ĝ": 222,
      "Ğ": 223,
      "ğ": 224,
      "Ġ": 225,
      "ġ": 226,
      "Ģ": 227,
      "ģ": 228,
      "Ĥ": 229,
      "ĥ": 230,
      "Ħ": 231,
      "ħ": 232,
      "Ĩ": 233,
      "ĩ": 234,
      "Ī": 235,
      "ī": 236,
      "Ĭ": 237,
      "ĭ": 238,
      "Į": 239,
      "į": 240,
      "İ": 241,
      "ı": 242,
      "Ĳ": 243,
      "ĳ": 244,
      "Ĵ": 245,
      "ĵ": 246,
      "Ķ": 247,
      "ķ": 248,
      "ĸ": 249,
      "Ĺ": 250,
      "ĺ": 251,
      "Ļ": 252,
      "ļ": 253,
      "Ľ": 254,
      "ľ": 255,
      "Ŀ": 256,
      "ŀ": 257,
      "Ł": 258,
      "ł": 259,
      "Ń": 260,
      "he": 261,
      "Ġt": 262,
      "Ġa": 263,
      "čĊ": 264,
      "in": 265,
      "Ġw": 266,
      "Ġs": 267,
      "re": 268,
      "Ġo": 269,
      "ha": 270,
      "er": 271,
      "ou": 272,
      "Ġthe": 273,
      "en": 274,
      "on": 275,
      "is": 276,
      "Ġb": 277,
      "it": 278,
      "Ġm": 279,
      "ed": 280,
      "âĢ": 281,
      "Ġto": 282,
      "nd": 283,
      "ĠĠ": 284,
      "ing": 285,
      "Ġof": 286,
      "Ġc": 287,
      "Ġhe": 288,
      "Ġf": 289,
      "ll": 290,
      "Ġand": 291,
      "as": 292,
      "ar": 293,
      "Ġn": 294,
      "le": 295,
      "Ġd": 296,
      "or": 297,
      "Ġh": 298,
      "Ġin": 299,
      "Ġbe": 300,
      "at": 301,
      "an": 302,
      "Ġha": 303,
      "Ġp": 304,
      "ot": 305,
      "es": 306,
      "om": 307,
      "Ġher": 308,
      "hat": 309,
      "ĠI": 310,
      "ion": 311,
      "ly": 312,
      "ĠĠĠĠ": 313,
      "et": 314,
      "st": 315,
      "li": 316,
      "âĢľ": 317,
      "âĢĿ": 318,
      "ve": 319,
      "Ġy": 320,
      "ent": 321,
      "ce": 322,
      "Ġe": 323,
      "Ġwas": 324,
      "ver": 325,
      "ld": 326,
      "im": 327,
      "Ġyou": 328,
      "se": 329,
      "Ġre": 330,
      "ch": 331,
      "Ġnot": 332,
      "ut": 333,
      "gh": 334,
      "ow": 335,
      "Ġg": 336,
      "her": 337,
      "ĠM": 338,
      "Ġthat": 339,
      "Ġit": 340,
      "ct": 341,
      "Ġas": 342,
      "id": 343,
      "ith": 344,
      "Ġshe": 345,
      "ab": 346,
      "ould": 347,
      "Ġfor": 348,
      "Ġl": 349,
      "Ġth": 350,
      "ay": 351,
      "ter": 352,
      "ir": 353,
      "Ġwith": 354,
      "Ġon": 355,
      "Ġhis": 356,
      "Ġwh": 357,
      "Ġhad": 358,
      "al": 359,
      "ere": 360,
      "ad": 361,
      "Ġan": 362,
      "ĠMr": 363,
      "ri": 364,
      "Ġat": 365,
      ".âĢĿ": 366,
      "Ġsu": 367,
      "ĠĠĠĠĠĠĠĠ": 368,
      "ĠB": 369,
      "Ġu": 370,
      "ill": 371,
      "Ġis": 372,
      "ation": 373,
      "ght": 374,
      "Ġso": 375,
      "our": 376,
      "ect": 377,
      "Ġhave": 378,
      "Ġhim": 379,
      "very": 380,
      "Ġcon": 381,
      "ain": 382,
      "ro": 383,
      "âĢĻ": 384,
      "eth": 385,
      "pp": 386,
      "ur": 387,
      "ĠL": 388,
      "ust": 389,
      "ore": 390,
      "Ġall": 391,
      "liz": 392,
      "Eliz": 393,
      "ee": 394,
      "am": 395,
      "ss": 396,
      "Ġby": 397,
      "Ġmy": 398,
      "lf": 399,
      "qu": 400,
      "abeth": 401,
      "Elizabeth": 402,
      "ic": 403,
      "oo": 404,
      "Ġbut": 405,
      "Ġme": 406,
      "ess": 407,
      "Ġde": 408,
      "ak": 409,
      "if": 410,
      "end": 411,
      "ich": 412,
      "all": 413,
      "rom": 414,
      "The": 415,
      "Ġne": 416,
      "Ġk": 417,
      "ag": 418,
      "Ġex": 419,
      "ĠC": 420,
      "self": 421,
      "ĠâĢľ": 422,
      "--": 423,
      "cy": 424,
      "Ġwere": 425,
      "Ġle": 426,
      "Ġsa": 427,
      "ĠH": 428,
      "and": 429,
      "Ġbeen": 430,
      "Ġwhich": 431,
      "ard": 432,
      "ome": 433,
      "Ġno": 434,
      "ĠD": 435,
      "Ġcould": 436,
      "Ġst": 437,
      "able": 438,
      "ure": 439,
      "th": 440,
      "Ġfrom": 441,
      "ĠElizabeth": 442,
      "Ġvery": 443,
      "Ġdo": 444,
      "hen": 445,
      "Ġthey": 446,
      "Ġam": 447,
      "ĠW": 448,
      ",âĢĿ": 449,
      "Ġ_": 450,
      "Ġwe": 451,
      "ul": 452,
      "Ġwould": 453,
      "Ġthem": 454,
      "arcy": 455,
      "han": 456,
      "Ġyour": 457,
      "Ġwho": 458,
      "the": 459,
      "now": 460,
      "ment": 461,
      "ant": 462,
      "art": 463,
      "est": 464,
      "Ġman": 465,
      "ough": 466,
      "Ġcom": 467,
      "Ġwhat": 468,
      "Ġli": 469,
      "un": 470,
      "one": 471,
      "ĠDarcy": 472,
      "Ġsaid": 473,
      "ĠS": 474,
      "ance": 475,
      "ra": 476,
      "Ġwill": 477,
      "ous": 478,
      "for": 479,
      "ong": 480,
      "ity": 481,
      "il": 482,
      "Ġun": 483,
      "uch": 484,
      "Ġany": 485,
      "Ġtheir": 486,
      "ĠĠĠĠĠĠĠĠĠĠĠĠĠĠĠĠ": 487,
      "Ġsh": 488,
      "Ġaf": 489,
      "ley": 490,
      "ate": 491,
      "pe": 492,
      "to": 493,
      "enn": 494,
      "Ġdis": 495,
      "Ġthis": 496,
      "ved": 497,
      "itt": 498,
      "ther": 499,
      "iss": 500,
      "Ġsuch": 501,
      "ennet": 502,
      "ĠThe": 503,
      "Ġper": 504,
      "Ġthere": 505,
      "ather": 506,
      "oll": 507,
      "ind": 508,
      "ive": 509,
      "ol": 510,
      "Ġare": 511,
      "out": 512,
      "ĠA": 513,
      "Ġor": 514,
      "Ġknow": 515,
      "ost": 516,
      "Ġag": 517,
      "Ġad": 518,
      "Ġthan": 519,
      "ight": 520,
      "Ġal": 521,
      "Ġv": 522,
      "au": 523,
      "red": 524,
      "Ġsee": 525,
      "Ġmore": 526,
      "other": 527,
      "ingley": 528,
      "ast": 529,
      "ane": 530,
      "ĠBennet": 531,
      "ood": 532,
      "Ġmuch": 533,
      "fore": 534,
      "os": 535,
      "us": 536,
      "Jane": 537,
      "ady": 538,
      "Ġim": 539,
      "ister": 540,
      "ence": 541,
      "Ġcan": 542,
      "ĠMrs": 543,
      "ake": 544,
      "Ġwhen": 545,
      "ked": 546,
      "Ġab": 547,
      "ven": 548,
      "ine": 549,
      "Ġmust": 550,
      "age": 551,
      "Ġse": 552,
      "Ġpro": 553,
      "reat": 554,
      "hi": 555,
      "ert": 556,
      "ally": 557,
      "ĠBingley": 558,
      "pt": 559,
      "wn": 560,
      "Ġpre": 561,
      "ĠMiss": 562,
      "cc": 563,
      "Ġhow": 564,
      "ink": 565,
      "Ġfe": 566,
      "Ġsister": 567,
      "ily": 568,
      "ke": 569,
      "way": 570,
      "Ġen": 571,
      "Ġother": 572,
      "ving": 573,
      "Ġpart": 574,
      "?âĢĿ": 575,
      "ort": 576,
      "ish": 577,
      "te": 578,
      "ĠJane": 579,
      "ress": 580,
      "Ġone": 581,
      "Ġexp": 582,
      "ame": 583,
      "Ġdid": 584,
      "de": 585,
      "Ġif": 586,
      "di": 587,
      "nt": 588,
      "Ġsp": 589,
      "ham": 590,
      "fect": 591,
      "Ġj": 592,
      "ite": 593,
      "Ġqu": 594,
      "leas": 595,
      "Ġhas": 596,
      "Ġevery": 597,
      "ble": 598,
      "ry": 599,
      "ins": 600,
      "ick": 601,
      "ĠShe": 602,
      "Ġshould": 603,
      "con": 604,
      "ever": 605,
      "Ġr": 606,
      "ĠBut": 607,
      "Ġthink": 608,
      "ject": 609,
      "not": 610,
      "ac": 611,
      "tter": 612,
      "Ġob": 613,
      "ide": 614,
      "of": 615,
      "ings": 616,
      "Ġcomp": 617,
      "ge": 618,
      "ist": 619,
      "hed": 620,
      "You": 621,
      "urn": 622,
      "Ġwor": 623,
      "Ġherself": 624,
      "ions": 625,
      "are": 626,
      "Ġagain": 627,
      "Ġsome": 628,
      "ime": 629,
      "med": 630,
      "su": 631,
      "that": 632,
      "Ġbefore": 633,
      "Ġsoon": 634,
      "Ġnever": 635,
      "ie": 636,
      "ies": 637,
      "ose": 638,
      "ought": 639,
      "ered": 640,
      "ner": 641,
      "ickham": 642,
      "ness": 643,
      "ng": 644,
      "Ġrep": 645,
      "Ġatt": 646,
      "hing": 647,
      "Ġthough": 648,
      "Ġonly": 649,
      "ollins": 650,
      "Ġmar": 651,
      "Ġhapp": 652,
      "Ġgreat": 653,
      "be": 654,
      "Ġown": 655,
      "ittle": 656,
      "Ġsay": 657,
      "Ġnow": 658,
      "Ġmight": 659,
      "Ġafter": 660,
      "Ġapp": 661,
      "Ġpo": 662,
      "riend": 663,
      "ĠHe": 664,
      "ru": 665,
      "Ġsha": 666,
      "per": 667,
      "ĠG": 668,
      "Ġtime": 669,
      "ĠIt": 670,
      "ond": 671,
      "Ġmost": 672,
      "ried": 673,
      "ne": 674,
      "Ġpleas": 675,
      "Ġup": 676,
      "sp": 677,
      "Ġtoo": 678,
      "Ġwell": 679,
      "Ġimp": 680,
      "op": 681,
      "um": 682,
      "eel": 683,
      "ree": 684,
      "ear": 685,
      "lie": 686,
      "Ġmay": 687,
      "ise": 688,
      "ig": 689,
      "ible": 690,
      "ydi": 691,
      "ĠCollins": 692,
      "ydia": 693,
      "ci": 694,
      "ary": 695,
      "ook": 696,
      "Mr": 697,
      "Ġgood": 698,
      "ĠWickham": 699,
      "ration": 700,
      "Ġlittle": 701,
      "augh": 702,
      "ire": 703,
      "we": 704,
      "ound": 705,
      "ertain": 706,
      "Ġoff": 707,
      "ass": 708,
      "ustration": 709,
      "Ġpl": 710,
      "uc": 711,
      "llustration": 712,
      "Ġgo": 713,
      "sent": 714,
      "Ġfriend": 715,
      "room": 716,
      "Illustration": 717,
      "ach": 718,
      "ful": 719,
      "int": 720,
      "har": 721,
      "Ġyoung": 722,
      "ade": 723,
      "ps": 724,
      "irst": 725,
      "ove": 726,
      "ice": 727,
      "alk": 728,
      "em": 729,
      "ward": 730,
      "ĠP": 731,
      "Ġmake": 732,
      "Ġent": 733,
      "Ġday": 734,
      "ĠLydia": 735,
      "Ġdear": 736,
      "od": 737,
      "Ġbeing": 738,
      "Ġwithout": 739,
      "led": 740,
      "Ġac": 741,
      "Ġthen": 742,
      "Ġeven": 743,
      "ĠLady": 744,
      "Ġfa": 745,
      "amily": 746,
      "cl": 747,
      "Ġshall": 748,
      "shi": 749,
      "ention": 750,
      "ope": 751,
      "thing": 752,
      "com": 753,
      "ĠN": 754,
      "Ġbr": 755,
      "Ġint": 756,
      "his": 757,
      "wo": 758,
      "iness": 759,
      "Ġfeel": 760,
      "ether": 761,
      "Ġlong": 762,
      "ount": 763,
      ",--": 764,
      "Ġdes": 765,
      "Ġinto": 766,
      "Ġnothing": 767,
      "Ġlike": 768,
      "ĠT": 769,
      "Ġfirst": 770,
      "Ġbelie": 771,
      "bour": 772,
      "own": 773,
      "Ġus": 774,
      "Ġfamily": 775,
      "Ġout": 776,
      "Ġthought": 777,
      "Ġadd": 778,
      "aughter": 779,
      "ated": 780,
      "Ġrem": 781,
      "ave": 782,
      "fere": 783,
      "lt": 784,
      "Ġover": 785,
      "Ġmanner": 786,
      "ouse": 787,
      "atherine": 788,
      "ten": 789,
      "Ġwhe": 790,
      "ile": 791,
      "Ġcons": 792,
      "Ġcont": 793,
      "iz": 794,
      "ious": 795,
      "ber": 796,
      "ways": 797,
      "Ġtwo": 798,
      "Ġcertain": 799,
      "lied": 800,
      "Ġever": 801,
      "Ġass": 802,
      "Ġar": 803,
      "Ġpr": 804,
      "Ġop": 805,
      "light": 806,
      "Ġsc": 807,
      "Ġsupp": 808,
      "Ġmother": 809,
      "Ġdaughter": 810,
      "Ġletter": 811,
      "Ġhowever": 812,
      "ĠF": 813,
      "ither": 814,
      "Ġmade": 815,
      "Ġhope": 816,
      "right": 817,
      "turn": 818,
      "cei": 819,
      "me": 820,
      "she": 821,
      "Ġacc": 822,
      "Ġaway": 823,
      "Ġfather": 824,
      "ser": 825,
      "aint": 826,
      "nder": 827,
      "ced": 828,
      "ied": 829,
      "ĠYou": 830,
      "Ġgive": 831,
      "ĠCatherine": 832,
      "ract": 833,
      "iner": 834,
      "ined": 835,
      "Ġsat": 836,
      "Ġhouse": 837,
      "Ġlast": 838,
      "ell": 839,
      "ning": 840,
      "Ġbeg": 841,
      "iv": 842,
      "riage": 843,
      "ared": 844,
      "was": 845,
      "Ġroom": 846,
      "ished": 847,
      "icul": 848,
      "ĠĠĠĠĠĠĠĠĠĠĠĠĠĠĠĠĠĠĠĠĠĠĠĠĠĠĠĠĠĠĠĠ": 849,
      "Ġabout": 850,
      "Ġspe": 851,
      "Ġmany": 852,
      "Ġalways": 853,
      "Ġits": 854,
      "spect": 855,
      "bt": 856,
      "bject": 857,
      "sw": 858,
      "Ġhimself": 859,
      "ssible": 860,
      "Ġmean": 861,
      "you": 862,
      "less": 863,
      "Ġgr": 864,
      "Ġway": 865,
      "ex": 866,
      "Ġwish": 867,
      "unt": 868,
      "ged": 869,
      "Ġsm": 870,
      "ener": 871,
      "Ġlove": 872,
      "ardiner": 873,
      "ility": 874,
      "Ġjust": 875,
      "son": 876,
      "ause": 877,
      "wh": 878,
      "Ġsure": 879,
      "fort": 880,
      "Ġaffect": 881,
      "Ġexpect": 882,
      "ces": 883,
      "Ġreg": 884,
      "Ġreturn": 885,
      "Ġcannot": 886,
      "Ġreplied": 887,
      "so": 888,
      "lem": 889,
      "izz": 890,
      "ace": 891,
      "lot": 892,
      "pr": 893,
      "sol": 894,
      "vour": 895,
      "Ġwr": 896,
      "ens": 897,
      "ened": 898,
      "ction": 899,
      "Ġansw": 900,
      "ended": 901,
      "Ġenough": 902,
      "wards": 903,
      "ody": 904,
      "ery": 905,
      "Ġfelt": 906,
      "ign": 907,
      "Ġspeak": 908,
      "izzy": 909,
      "body": 910,
      "igh": 911,
      "Ġinde": 912,
      "ately": 913,
      "ĠGardiner": 914,
      "But": 915,
      "She": 916,
      "will": 917,
      "Ġsom": 918,
      "vers": 919,
      "iffere": 920,
      "Ġkind": 921,
      "Ġsaw": 922,
      "but": 923,
      "cept": 924,
      "ations": 925,
      "ĠLong": 926,
      "ield": 927,
      "fe": 928,
      "Ġhear": 929,
      "lic": 930,
      "Ġunder": 931,
      "with": 932,
      "isit": 933,
      "Ġcha": 934,
      "ason": 935,
      "Ġquite": 936,
      "Ġcried": 937,
      "Ġpass": 938,
      "Ġgent": 939,
      "Ġlook": 940,
      "quaint": 941,
      "Ġocc": 942,
      "Ġbetter": 943,
      "Oh": 944,
      "him": 945,
      "ud": 946,
      "Ġtr": 947,
      "haps": 948,
      "Ġcame": 949,
      "irl": 950,
      "bourn": 951,
      "He": 952,
      "most": 953,
      "pl": 954,
      "pos": 955,
      "Ġset": 956,
      "isf": 957,
      "ably": 958,
      "Ġsubject": 959,
      "harlot": 960,
      "Ġbelieve": 961,
      "ceived": 962,
      "harlotte": 963,
      "ers": 964,
      "Ġoften": 965,
      "ford": 966,
      "ucas": 967,
      "cle": 968,
      "vi": 969,
      "vant": 970,
      "ĠK": 971,
      "ince": 972,
      "itu": 973,
      "Ġdone": 974,
      "oment": 975,
      "Ġreally": 976,
      "Ġmyself": 977,
      "!âĢĿ": 978,
      "Ġmor": 979,
      "Ġwhom": 980,
      "alked": 981,
      "Ġpleasure": 982,
      "nce": 983,
      "Ġmat": 984,
      "arly": 985,
      "Ġrel": 986,
      "adies": 987,
      "Ġadm": 988,
      "Ġexpress": 989,
      "Ġconsid": 990,
      "Ġtill": 991,
      "Ġaunt": 992,
      "Ġcall": 993,
      "Ġcome": 994,
      "ĠThey": 995,
      "ĠAnd": 996,
      "Ġobject": 997,
      "iam": 998,
      "Ġill": 999,
      "Ġwant": 1000,
      "ret": 1001,
      "erm": 1002,
      "Ġinst": 1003,
      "Ġgi": 1004,
      "ember": 1005,
      "Ġgener": 1006,
      "Ġform": 1007,
      "Ġdoes": 1008,
      "ack": 1009,
      "shire": 1010,
      "Ġwhere": 1011,
      "Ġbec": 1012,
      "Ġhand": 1013,
      "ooked": 1014,
      "Ġwhole": 1015,
      "Ġdist": 1016,
      "Ġword": 1017,
      "Ġgentlem": 1018,
      "day": 1019,
      "Ġwom": 1020,
      "ety": 1021,
      "Ġrec": 1022,
      "Ġgirl": 1023,
      "ĠLucas": 1024,
      "Ġless": 1025,
      "new": 1026,
      "app": 1027,
      "field": 1028,
      "ĠR": 1029,
      "Ġend": 1030,
      "Ġturn": 1031,
      "inu": 1032,
      "ised": 1033,
      "Ġch": 1034,
      "Ġcour": 1035,
      "Ġread": 1036,
      "owed": 1037,
      "Ġsur": 1038,
      "ained": 1039,
      "Ġvisit": 1040,
      "Ġfeelings": 1041,
      "Ġindeed": 1042,
      "ĠLongbourn": 1043,
      "ves": 1044,
      "Ġheard": 1045,
      "ething": 1046,
      "Ġeng": 1047,
      "medi": 1048,
      "racter": 1049,
      "vent": 1050,
      "xt": 1051,
      "Ġtake": 1052,
      "lly": 1053,
      "Ġdown": 1054,
      "Ġhaving": 1055,
      "Ġladies": 1056,
      "ĠLizzy": 1057,
      "ured": 1058,
      "Ġhappy": 1059,
      "Ġaffection": 1060,
      "cess": 1061,
      "ft": 1062,
      "Ġfoll": 1063,
      "oth": 1064,
      "Ġstill": 1065,
      "Ġpresent": 1066,
      "It": 1067,
      "cer": 1068,
      "gether": 1069,
      "mon": 1070,
      "Ġour": 1071,
      "oubt": 1072,
      "ense": 1073,
      "ition": 1074,
      "any": 1075,
      "itty": 1076,
      "Ġseen": 1077,
      "etherfield": 1078,
      "oy": 1079,
      "Ġwalk": 1080,
      "Ġmoment": 1081,
      "ase": 1082,
      "Ġfort": 1083,
      "Ġlooked": 1084,
      "Ġfew": 1085,
      "Ġacquaint": 1086,
      "Ġcount": 1087,
      "Ġnor": 1088,
      "ceed": 1089,
      "Ġperson": 1090,
      "Ġsisters": 1091,
      "Ġbrother": 1092,
      "Ġsatisf": 1093,
      "And": 1094,
      "ff": 1095,
      "Ġser": 1096,
      "Ġsame": 1097,
      "Ġfind": 1098,
      "asion": 1099,
      "Ġinv": 1100,
      "Ġparticul": 1101,
      "Ġplace": 1102,
      "Ġevening": 1103,
      "du": 1104,
      "dis": 1105,
      "some": 1106,
      "ty": 1107,
      "ently": 1108,
      "Ġperfect": 1109,
      "ship": 1110,
      "Ġmorning": 1111,
      "Ġyear": 1112,
      "Ġey": 1113,
      "Ġleast": 1114,
      "onel": 1115,
      "olonel": 1116,
      "Ġappear": 1117,
      "ween": 1118,
      "Ġadded": 1119,
      "Ġopin": 1120,
      "ER": 1121,
      "Ġtalk": 1122,
      "Ġwent": 1123,
      "Ġtold": 1124,
      "Ġreason": 1125,
      "Ġconf": 1126,
      "Ġuncle": 1127,
      "Ġanything": 1128,
      "Ġimmedi": 1129,
      "HA": 1130,
      "ial": 1131,
      "hes": 1132,
      "Ġfound": 1133,
      "Ġdet": 1134,
      "Ġhar": 1135,
      "Ġhalf": 1136,
      "Ġworld": 1137,
      "Ġcertainly": 1138,
      "Ġanswer": 1139,
      "air": 1140,
      "Ġ1": 1141,
      "Ġtell": 1142,
      "had": 1143,
      "its": 1144,
      "Ġcar": 1145,
      "Ġel": 1146,
      "Ġcharacter": 1147,
      "ap": 1148,
      "know": 1149,
      "old": 1150,
      "ton": 1151,
      "Ġboth": 1152,
      "Ġpe": 1153,
      "ĠCharlotte": 1154,
      "ĠHer": 1155,
      "Ġtherefore": 1156,
      "Ġobser": 1157,
      "Ġhappiness": 1158,
      "reeable": 1159,
      "Ġconsider": 1160,
      "ĠO": 1161,
      "Ġtowards": 1162,
      "Ġciv": 1163,
      "atur": 1164,
      "Ġref": 1165,
      "aking": 1166,
      "Ġleft": 1167,
      "Ġperhaps": 1168,
      "ĠNetherfield": 1169,
      "Ġcontinu": 1170,
      "which": 1171,
      "Ġsomething": 1172,
      "versation": 1173,
      "ifferent": 1174,
      "ĠKitty": 1175,
      "aut": 1176,
      "by": 1177,
      "sh": 1178,
      "Ġsince": 1179,
      "Ġhere": 1180,
      "Ġyet": 1181,
      "imes": 1182,
      "ĠMy": 1183,
      "riv": 1184,
      "Ġdelight": 1185,
      "Ġmarry": 1186,
      "Mrs": 1187,
      "cern": 1188,
      "CHA": 1189,
      "mpt": 1190,
      "nect": 1191,
      "ĠX": 1192,
      "ited": 1193,
      "Ġtown": 1194,
      "Ġhome": 1195,
      "Ġinc": 1196,
      "Ġbet": 1197,
      "Ġbeha": 1198,
      "ances": 1199,
      "Ġget": 1200,
      "Ġthree": 1201,
      "Ġnext": 1202,
      "form": 1203,
      "Ġspo": 1204,
      "Ġopinion": 1205,
      "dly": 1206,
      "eor": 1207,
      "ger": 1208,
      "Ġide": 1209,
      "Ġmind": 1210,
      "ingly": 1211,
      "Ġrespect": 1212,
      "erest": 1213,
      "Ġleave": 1214,
      "Ġattention": 1215,
      "PT": 1216,
      "pre": 1217,
      "stand": 1218,
      "Ġgone": 1219,
      "ctly": 1220,
      "Ġonce": 1221,
      "aken": 1222,
      "ĠHis": 1223,
      "Ġpoint": 1224,
      "Ġwoman": 1225,
      "Ġsurpr": 1226,
      "CHAPT": 1227,
      "CHAPTER": 1228,
      "My": 1229,
      "Yes": 1230,
      "ck": 1231,
      "ired": 1232,
      "ran": 1233,
      "ue": 1234,
      "Ġfar": 1235,
      "Ġhour": 1236,
      "Ġbest": 1237,
      "Ġrest": 1238,
      "my": 1239,
      "over": 1240,
      "Ġmention": 1241,
      "ark": 1242,
      "ord": 1243,
      "Ġhon": 1244,
      "Ġeach": 1245,
      "imp": 1246,
      "Ġresol": 1247,
      "Ġthr": 1248,
      "Ġthose": 1249,
      "Ġwhile": 1250,
      "Ġstay": 1251,
      "Ġjo": 1252,
      "Ġrather": 1253,
      "Ġupon": 1254,
      "eryton": 1255,
      "Ġpassed": 1256,
      "Ġgiven": 1257,
      "band": 1258,
      "use": 1259,
      "Ġsil": 1260,
      "Ġthese": 1261,
      "Ġmis": 1262,
      "Ġchi": 1263,
      "ĠIf": 1264,
      "Ġeither": 1265,
      "ute": 1266,
      "Ġgl": 1267,
      "Ġnew": 1268,
      "ĠColonel": 1269,
      "Ġwhose": 1270,
      "usband": 1271,
      "Ġmarriage": 1272,
      "ondon": 1273,
      "Ġbegan": 1274,
      "Ġsett": 1275,
      "ea": 1276,
      "att": 1277,
      "irc": 1278,
      "Ġknew": 1279,
      "aged": 1280,
      "ments": 1281,
      "Ġlife": 1282,
      "iled": 1283,
      "ollect": 1284,
      "Ġseemed": 1285,
      "Ġmarried": 1286,
      "ĠGeor": 1287,
      "viour": 1288,
      "emberley": 1289,
      "Ġbecause": 1290,
      "Ġimmediately": 1291,
      "._": 1292,
      "ossible": 1293,
      "part": 1294,
      "Ġest": 1295,
      "Ġdire": 1296,
      "Ġshort": 1297,
      "Ġalmost": 1298,
      "Your": 1299,
      "br": 1300,
      "ix": 1301,
      "Ġtogether": 1302,
      "Ġcous": 1303,
      "ower": 1304,
      "une": 1305,
      "Ġpossible": 1306,
      "Ġmeans": 1307,
      "Ġbetween": 1308,
      "When": 1309,
      "cour": 1310,
      "fter": 1311,
      "Ġpur": 1312,
      "Ġem": 1313,
      "Ġequ": 1314,
      "Ġlady": 1315,
      "Ġext": 1316,
      "Ġcoming": 1317,
      "Ġseeing": 1318,
      "ressed": 1319,
      "ĠFor": 1320,
      "Ġoccasion": 1321,
      "Ġgeneral": 1322,
      "aid": 1323,
      "what": 1324,
      "Ġside": 1325,
      "itation": 1326,
      "Ġmin": 1327,
      "Ġheart": 1328,
      "Ġdan": 1329,
      "ĠIn": 1330,
      "like": 1331,
      "Ġeas": 1332,
      "sequ": 1333,
      "Ġreceived": 1334,
      "uth": 1335,
      "Ġknown": 1336,
      "Ġothers": 1337,
      "Ġparty": 1338,
      "Ġgoing": 1339,
      "Ġfriends": 1340,
      "Ġfavour": 1341,
      "ighbour": 1342,
      "Ġeyes": 1343,
      "ffect": 1344,
      "pleas": 1345,
      "would": 1346,
      "your": 1347,
      "Ġsent": 1348,
      "Ġopp": 1349,
      "eness": 1350,
      "Ġbl": 1351,
      "Ġcl": 1352,
      "Ġdin": 1353,
      "Ġdoubt": 1354,
      "Ġinter": 1355,
      "eep": 1356,
      "Ġmeet": 1357,
      "ife": 1358,
      "Ġseem": 1359,
      "Ġable": 1360,
      "ople": 1361,
      "Ġwhether": 1362,
      "Ġcourse": 1363,
      "ircum": 1364,
      "ĠE": 1365,
      "Ġact": 1366,
      "arn": 1367,
      "Ġind": 1368,
      "Ġinqu": 1369,
      "Ġgave": 1370,
      "Ġanother": 1371,
      "Ġconversation": 1372,
      "ĠLondon": 1373,
      "ĠWill": 1374,
      "osings": 1375,
      "tempt": 1376,
      "Ġobli": 1377,
      "Ġagainst": 1378,
      "ught": 1379,
      "here": 1380,
      "arce": 1381,
      "Ġpain": 1382,
      "ĠMeryton": 1383,
      "Ġlet": 1384,
      "them": 1385,
      "ĠAll": 1386,
      "osed": 1387,
      "Ġregard": 1388,
      "Ġperfectly": 1389,
      "Ġbehaviour": 1390,
      "ks": 1391,
      "lves": 1392,
      "oice": 1393,
      "read": 1394,
      "Ġback": 1395,
      "Ġchan": 1396,
      "Ġhusband": 1397,
      "Ġbeaut": 1398,
      "Ġforg": 1399,
      "Ġlist": 1400,
      "Ġconnect": 1401,
      "usiness": 1402,
      "Ġtook": 1403,
      "Ġmanners": 1404,
      "ĠĠĠĠĠĠĠĠĠĠĠĠĠĠĠĠĠĠĠĠĠĠĠĠĠĠĠĠĠĠĠĠĠĠĠĠĠĠĠĠ": 1405,
      "Ġidea": 1406,
      "ircumst": 1407,
      "ef": 1408,
      "ully": 1409,
      "arm": 1410,
      "ature": 1411,
      "Ġev": 1412,
      "iment": 1413,
      "owing": 1414,
      "Ġask": 1415,
      "Ġste": 1416,
      "Ġcomm": 1417,
      "Ġcomfort": 1418,
      "ĠThere": 1419,
      "Ġdaughters": 1420,
      "Ġdeterm": 1421,
      "hood": 1422,
      "Ġwife": 1423,
      "Ġsense": 1424,
      "eng": 1425,
      "Ġcare": 1426,
      "Ġfre": 1427,
      "Ġprom": 1428,
      "selves": 1429,
      "Ġconcern": 1430,
      "They": 1431,
      "ĠWhat": 1432,
      "onder": 1433,
      "exp": 1434,
      "Ġunderstand": 1435,
      "ĠRosings": 1436,
      "Ġacquaintance": 1437,
      "Ġsettled": 1438,
      "Ġcousin": 1439,
      "arcely": 1440,
      "In": 1441,
      "gu": 1442,
      "iable": 1443,
      "pend": 1444,
      "Ġwee": 1445,
      "Ġwalked": 1446,
      "Ġhop": 1447,
      "ating": 1448,
      "ceive": 1449,
      "Ġyourself": 1450,
      "antly": 1451,
      "Ġprob": 1452,
      "ishment": 1453,
      "Ġquest": 1454,
      "ĠPemberley": 1455,
      "Ġsuppose": 1456,
      "Ġaccount": 1457,
      "vantage": 1458,
      "Ġgentleman": 1459,
      "Ġcontinued": 1460,
      "Ġhonour": 1461,
      "lp": 1462,
      "have": 1463,
      "Ġchar": 1464,
      "Ġhum": 1465,
      "ston": 1466,
      "Ġgu": 1467,
      "Ġconv": 1468,
      "uring": 1469,
      "there": 1470,
      "Ġlive": 1471,
      "ĠSir": 1472,
      "Ġpersu": 1473,
      "Ġeverything": 1474,
      "Ġinterest": 1475,
      "Ġgrat": 1476,
      "Ġreturned": 1477,
      "Ġformer": 1478,
      "Ġparticular": 1479,
      "Ġhardly": 1480,
      "Ġelse": 1481,
      "Ġpeople": 1482,
      "ĠWilliam": 1483,
      "ib": 1484,
      "ient": 1485,
      "oved": 1486,
      "Ġtem": 1487,
      "Ġsens": 1488,
      "ory": 1489,
      "Ġhigh": 1490,
      "Ġinf": 1491,
      "atter": 1492,
      "Ġpower": 1493,
      "their": 1494,
      "Ġadv": 1495,
      "Ġspir": 1496,
      "Ġpride": 1497,
      "Ġcivility": 1498,
      "ĠGeorge": 1499,
      "II": 1500,
      "gr": 1501,
      "oint": 1502,
      "rew": 1503,
      "Ġought": 1504,
      "Ġdifferent": 1505,
      "etimes": 1506,
      "ster": 1507,
      "Ġanx": 1508,
      "Ġusu": 1509,
      "ourgh": 1510,
      "Ġdoor": 1511,
      "ĠWe": 1512,
      "Ġagreeable": 1513,
      "ertford": 1514,
      "Ġpret": 1515,
      "ached": 1516,
      "Ġexpected": 1517,
      "itude": 1518,
      "Ġcalled": 1519,
      "Ġgirls": 1520,
      "Ġthrough": 1521,
      "ertfordshire": 1522,
      "Miss": 1523,
      "_,": 1524,
      "pro": 1525,
      "row": 1526,
      "rong": 1527,
      "ting": 1528,
      "vo": 1529,
      "were": 1530,
      "Ġright": 1531,
      "Ġaston": 1532,
      "inced": 1533,
      "Ġball": 1534,
      "lect": 1535,
      "Ġnecess": 1536,
      "ĠHow": 1537,
      "Ġdispos": 1538,
      "Ġimpossible": 1539,
      "Ġlikely": 1540,
      "Ġscarcely": 1541,
      "Ġrecollect": 1542,
      "Ġendea": 1543,
      "Ġ18": 1544,
      "Ġspoke": 1545,
      "94": 1546,
      "Bingley": 1547,
      "This": 1548,
      "could": 1549,
      "come": 1550,
      "oud": 1551,
      "Ġbusiness": 1552,
      "Ġmen": 1553,
      "Ġmet": 1554,
      "Ġmere": 1555,
      "Ġhelp": 1556,
      "Ġput": 1557,
      "ident": 1558,
      "Ġneighbour": 1559,
      "raid": 1560,
      "Ġimag": 1561,
      "Ġfear": 1562,
      "Ġcountry": 1563,
      "Ġyears": 1564,
      "Ġcarriage": 1565,
      "every": 1566,
      "man": 1567,
      "ination": 1568,
      "Ġsor": 1569,
      "happ": 1570,
      "iting": 1571,
      "Ġmist": 1572,
      "utes": 1573,
      "ĠBourgh": 1574,
      "Ġaff": 1575,
      "tell": 1576,
      "iew": 1577,
      "rue": 1578,
      "Ġoffic": 1579,
      "Ġlonger": 1580,
      "ituation": 1581,
      "Ġturned": 1582,
      "ched": 1583,
      "do": 1584,
      "des": 1585,
      "ler": 1586,
      "par": 1587,
      "when": 1588,
      "wise": 1589,
      "yond": 1590,
      "Ġaw": 1591,
      "Ġwis": 1592,
      "Ġwished": 1593,
      "Ġwonder": 1594,
      "Ġsort": 1595,
      "aster": 1596,
      "Ġdra": 1597,
      "Ġdare": 1598,
      "lips": 1599,
      "Ġrepe": 1600,
      "ading": 1601,
      "urst": 1602,
      "Ġnear": 1603,
      "Ġdisc": 1604,
      "Ġsec": 1605,
      "Ġposs": 1606,
      "Ġentered": 1607,
      "comm": 1608,
      "Ġsmile": 1609,
      "Ġfortune": 1610,
      "Ġconvinced": 1611,
      "Darcy": 1612,
      "How": 1613,
      "cri": 1614,
      "eas": 1615,
      "ple": 1616,
      "up": 1617,
      "zwill": 1618,
      "Ġtable": 1619,
      "itzwill": 1620,
      "Ġcircumst": 1621,
      "Ġhead": 1622,
      "Ġfl": 1623,
      "ari": 1624,
      "Ġreal": 1625,
      "Ġasked": 1626,
      "ided": 1627,
      "iff": 1628,
      "ager": 1629,
      "ĠWhen": 1630,
      "hilips": 1631,
      "Ġprevent": 1632,
      "rud": 1633,
      "opy": 1634,
      "Ġaccept": 1635,
      "ĠLadyship": 1636,
      "Ġopen": 1637,
      "Ġwrite": 1638,
      "Ġhandsome": 1639,
      "Ġtalking": 1640,
      "Ġ1894": 1641,
      "itzwilliam": 1642,
      "Copy": 1643,
      "If": 1644,
      "What": 1645,
      "]]": 1646,
      "dd": 1647,
      "good": 1648,
      "Ġtalked": 1649,
      "oured": 1650,
      "Ġbre": 1651,
      "Ġfour": 1652,
      "Ġnatur": 1653,
      "Ġincl": 1654,
      "Ġinform": 1655,
      "Ġgra": 1656,
      "ĠMary": 1657,
      "Ġsuff": 1658,
      "Ġconsequ": 1659,
      "rove": 1660,
      "they": 1661,
      "Ġadvantage": 1662,
      "redit": 1663,
      "agement": 1664,
      "ference": 1665,
      "Ġassure": 1666,
      "Ġsmall": 1667,
      "Ġmatter": 1668,
      "Ġgentlemen": 1669,
      "appoint": 1670,
      "ĠForster": 1671,
      "ĠAllen": 1672,
      "Copyright": 1673,
      "Bennet": 1674,
      "No": 1675,
      "That": 1676,
      "[_": 1677,
      "cing": 1678,
      "ior": 1679,
      "ian": 1680,
      "sence": 1681,
      "Ġes": 1682,
      "ren": 1683,
      "ities": 1684,
      "Ġrequ": 1685,
      "Ġdeal": 1686,
      "ending": 1687,
      "ult": 1688,
      "ousand": 1689,
      "ĠAs": 1690,
      "Ġcompli": 1691,
      "Ġattent": 1692,
      "Ġpleased": 1693,
      "Ġplay": 1694,
      "Ġbrought": 1695,
      "Ġsatisfied": 1696,
      "airs": 1697,
      "rival": 1698,
      "._]]": 1699,
      "Ġsorry": 1700,
      "Lady": 1701,
      "aw": 1702,
      "eared": 1703,
      "fast": 1704,
      "fully": 1705,
      "ses": 1706,
      "uri": 1707,
      "Ġwa": 1708,
      "ready": 1709,
      "ering": 1710,
      "Ġdecl": 1711,
      "ĠHertfordshire": 1712,
      "Ġamiable": 1713,
      "ortun": 1714,
      "iece": 1715,
      "rupt": 1716,
      "ounds": 1717,
      "ĠPhilips": 1718,
      "ĠTo": 1719,
      "Ġinvitation": 1720,
      "Ġusual": 1721,
      "aim": 1722,
      "acy": 1723,
      "actly": 1724,
      "from": 1725,
      "feel": 1726,
      "ming": 1727,
      "og": 1728,
      "pose": 1729,
      "sid": 1730,
      "Ġsituation": 1731,
      "Ġnight": 1732,
      "Ġbeyond": 1733,
      "Ġearly": 1734,
      "Ġlo": 1735,
      "Ġthings": 1736,
      "Ġdec": 1737,
      "Ġneither": 1738,
      "this": 1739,
      "Ġamong": 1740,
      "race": 1741,
      "usion": 1742,
      "cond": 1743,
      "ney": 1744,
      "ciety": 1745,
      "Ġfeeling": 1746,
      "Ġsometimes": 1747,
      "Ġengaged": 1748,
      "Ġserious": 1749,
      "Ġchild": 1750,
      "Ġinquir": 1751,
      "ength": 1752,
      "Ġmerely": 1753,
      "hy": 1754,
      "ild": 1755,
      "ience": 1756,
      "night": 1757,
      "pter": 1758,
      "inter": 1759,
      "Ġslight": 1760,
      "enance": 1761,
      "Ġbook": 1762,
      "Ġcase": 1763,
      "Ġins": 1764,
      "ote": 1765,
      "Ġeager": 1766,
      "Ġattempt": 1767,
      "Ġsum": 1768,
      "ĠHurst": 1769,
      "though": 1770,
      "Ġafraid": 1771,
      "itting": 1772,
      "Ġalso": 1773,
      "Ġsaying": 1774,
      "Ġpoor": 1775,
      "cious": 1776,
      "well": 1777,
      "Ġdesign": 1778,
      "Ġanswered": 1779,
      "duct": 1780,
      "ĠĠĠĠĠĠĠĠĠĠĠĠĠĠĠĠĠĠĠĠĠĠĠĠĠĠĠĠĠĠĠĠĠĠĠĠĠĠĠĠĠĠĠĠ": 1781,
      "Ġspirits": 1782,
      "Wickham": 1783,
      "hum": 1784,
      "such": 1785,
      "ually": 1786,
      "where": 1787,
      "Ġ(": 1788,
      "ĠJ": 1789,
      "Ġra": 1790,
      "Ġten": 1791,
      "Ġair": 1792,
      "hapter": 1793,
      "Ġmon": 1794,
      "Ġmaking": 1795,
      "Ġche": 1796,
      "Ġfine": 1797,
      "Ġpat": 1798,
      "Ġele": 1799,
      "Ġeld": 1800,
      "ified": 1801,
      "Ġstrong": 1802,
      "itted": 1803,
      "ĠAt": 1804,
      "Ġview": 1805,
      "Ġself": 1806,
      "Ġran": 1807,
      "Ġappro": 1808,
      "uck": 1809,
      "ledge": 1810,
      "ĠThis": 1811,
      "Ġarrival": 1812,
      "Ġspeaking": 1813,
      "ifference": 1814,
      "ĠOn": 1815,
      "ĠXX": 1816,
      "Ġsurprised": 1817,
      "Ġglad": 1818,
      "Ġnews": 1819,
      "Ġminutes": 1820,
      "Ġdinner": 1821,
      "Ġdetermined": 1822,
      "Ġendeavour": 1823,
      "Ġwishes": 1824,
      "_.": 1825,
      "can": 1826,
      "ict": 1827,
      "king": 1828,
      "mar": 1829,
      "more": 1830,
      "ron": 1831,
      "sister": 1832,
      "ying": 1833,
      "Ġtaken": 1834,
      "Ġname": 1835,
      "Ġdance": 1836,
      "Ġdiff": 1837,
      "Ġpar": 1838,
      "see": 1839,
      "Ġlar": 1840,
      "Ġlength": 1841,
      "Ġthus": 1842,
      "Ġconce": 1843,
      "ross": 1844,
      "usten": 1845,
      "Ġdef": 1846,
      "akfast": 1847,
      "Ġexc": 1848,
      "Ġdisappoint": 1849,
      "Ġexpl": 1850,
      "Ġjud": 1851,
      "Ġeverybody": 1852,
      "nothing": 1853,
      "been": 1854,
      "Ġappeared": 1855,
      "Ġdays": 1856,
      "Ġbelieved": 1857,
      "ĠFitzwilliam": 1858,
      "Heading": 1859,
      "Ġwords": 1860,
      "Ġsurprise": 1861,
      "Ġsilence": 1862,
      "utely": 1863,
      "Ġequal": 1864,
      "Ġfrequ": 1865,
      "Ġweek": 1866,
      "Ġsensible": 1867,
      "tellig": 1868,
      "ortunity": 1869,
      ":--": 1870,
      "joy": 1871,
      "ken": 1872,
      "ual": 1873,
      "Ġ2": 1874,
      "Ġro": 1875,
      "Ġtri": 1876,
      "Ġsir": 1877,
      "Ġcredit": 1878,
      "Ġbear": 1879,
      "ancy": 1880,
      "Ġyes": 1881,
      "Ġearn": 1882,
      "ution": 1883,
      "Ġwithin": 1884,
      "aded": 1885,
      "Ġallow": 1886,
      "Ġmeant": 1887,
      "Ġdepend": 1888,
      "Ġkeep": 1889,
      "Ġexactly": 1890,
      "ĠChapter": 1891,
      "ĠAusten": 1892,
      "Ġalone": 1893,
      "used": 1894,
      "Ġproper": 1895,
      "hile": 1896,
      "ccess": 1897,
      "irely": 1898,
      "Ġintro": 1899,
      "Ġadmir": 1900,
      "ceedingly": 1901,
      "Ġsatisfa": 1902,
      "should": 1903,
      "Ġjoined": 1904,
      "Ġhighly": 1905,
      "Ġofficers": 1906,
      "Ġdraw": 1907,
      "Ġrepeated": 1908,
      "Ġmonth": 1909,
      "Ġearnest": 1910,
      "ailed": 1911,
      "duc": 1912,
      "how": 1913,
      "mb": 1914,
      "mor": 1915,
      "hend": 1916,
      "inci": 1917,
      "reas": 1918,
      "ene": 1919,
      "Ġmaster": 1920,
      "Ġtoler": 1921,
      "Ġcor": 1922,
      "Ġcap": 1923,
      "Ġfive": 1924,
      "Ġintellig": 1925,
      "Ġrecomm": 1926,
      "Ġforward": 1927,
      "Ġlost": 1928,
      "Ġwhy": 1929,
      "Ġuse": 1930,
      "Ġneed": 1931,
      "----": 1932,
      "Ġstran": 1933,
      "Ġthemselves": 1934,
      "uns": 1935,
      "oney": 1936,
      "Ġord": 1937,
      "Ġago": 1938,
      "Ġsecond": 1939,
      "ortance": 1940,
      "being": 1941,
      "Ġafterwards": 1942,
      "achment": 1943,
      "Ġface": 1944,
      "Ġbring": 1945,
      "Ġremark": 1946,
      "Ġassured": 1947,
      "Ġservant": 1948,
      "Ġparticularly": 1949,
      "Ġseems": 1950,
      "Ġobliged": 1951,
      "grat": 1952,
      "dden": 1953,
      "aving": 1954,
      "friend": 1955,
      "und": 1956,
      "ull": 1957,
      "wor": 1958,
      "ising": 1959,
      "Ġco": 1960,
      "Ġcle": 1961,
      "Ġhur": 1962,
      "ows": 1963,
      "alth": 1964,
      "ality": 1965,
      "Ġsuper": 1966,
      "Ġconduct": 1967,
      "Ġallowed": 1968,
      "ool": 1969,
      "ĠDo": 1970,
      "Ġliked": 1971,
      "peci": 1972,
      "ively": 1973,
      "Ġalready": 1974,
      "Ġspite": 1975,
      "cont": 1976,
      "Ġcomple": 1977,
      "Ġoffer": 1978,
      "Ġentirely": 1979,
      "Ġacknow": 1980,
      "ĠTh": 1981,
      "Ġthoughts": 1982,
      "ceiving": 1983,
      "Ġaccom": 1984,
      "himself": 1985,
      "Ġappearance": 1986,
      "Ġbeauty": 1987,
      "Ġastonishment": 1988,
      "unsford": 1989,
      "As": 1990,
      "His": 1991,
      "To": 1992,
      "With": 1993,
      "ail": 1994,
      "must": 1995,
      "no": 1996,
      "phe": 1997,
      "Ġson": 1998,
      "erby": 1999,
      "Ġmot": 2000,
      "Ġnature": 2001,
      "Ġhor": 2002,
      "Ġhast": 2003,
      "Ġpra": 2004,
      "Ġeffect": 2005,
      "veral": 2006,
      "Ġresent": 2007,
      "Ġsociety": 2008,
      "urther": 2009,
      "akes": 2010,
      "ages": 2011,
      "Ġexcept": 2012,
      "ures": 2013,
      "Ġwholly": 2014,
      "Ġknowing": 2015,
      "Ġprof": 2016,
      "off": 2017,
      "Ġreply": 2018,
      "Ġintim": 2019,
      "Ġsupposed": 2020,
      "Ġkindness": 2021,
      "Ġinstantly": 2022,
      "Ġchoo": 2023,
      "Ġresolved": 2024,
      "Ġdirect": 2025,
      "ixed": 2026,
      "Ġeasily": 2027,
      "Ġpretty": 2028,
      "void": 2029,
      "Ġnecessary": 2030,
      "Ġnatural": 2031,
      "pecially": 2032,
      "erbyshire": 2033,
      "bar": 2034,
      "gree": 2035,
      "ma": 2036,
      "much": 2037,
      "pri": 2038,
      "som": 2039,
      "ĠYour": 2040,
      "inary": 2041,
      "Ġwat": 2042,
      "Ġsing": 2043,
      "ouble": 2044,
      "âĢĺ": 2045,
      "ĠĠĠ": 2046,
      "Ġfin": 2047,
      "Ġduring": 2048,
      "ors": 2049,
      "anity": 2050,
      "cell": 2051,
      "Ġevent": 2052,
      "semb": 2053,
      "Ġreceive": 2054,
      "Ġlatter": 2055,
      "Ġthousand": 2056,
      "rie": 2057,
      "Ġcommon": 2058,
      "Ġwhatever": 2059,
      "Ġanybody": 2060,
      "Ġsho": 2061,
      "Ġdisg": 2062,
      "Ġabsence": 2063,
      "Ġpropos": 2064,
      "ressing": 2065,
      "ĠNot": 2066,
      "Ġsche": 2067,
      "righton": 2068,
      "who": 2069,
      "ignor": 2070,
      "Ġlooking": 2071,
      "Ġmatch": 2072,
      "Ġgiving": 2073,
      "duce": 2074,
      "Ġobserved": 2075,
      "Ġhours": 2076,
      "Ġsilent": 2077,
      "Ġopportunity": 2078,
      "Ġquestion": 2079,
      "ibility": 2080,
      "Ġanxious": 2081,
      "Ġimagine": 2082,
      "Ġconsequence": 2083,
      "Ġcompliment": 2084,
      "urios": 2085,
      "phew": 2086,
      "Charlotte": 2087,
      "Her": 2088,
      "Not": 2089,
      "cha": 2090,
      "ey": 2091,
      "eed": 2092,
      "ging": 2093,
      "mer": 2094,
      "may": 2095,
      "than": 2096,
      "Ġve": 2097,
      "ĠOh": 2098,
      "Ġtrue": 2099,
      "Ġauth": 2100,
      "Ġwind": 2101,
      "Ġsend": 2102,
      "reg": 2103,
      "rehend": 2104,
      "oun": 2105,
      "only": 2106,
      "Ġmoney": 2107,
      "Ġpol": 2108,
      "Ġpounds": 2109,
      "Ġgot": 2110,
      "herself": 2111,
      "ability": 2112,
      "Ġlaugh": 2113,
      "als": 2114,
      "alse": 2115,
      "ĠBrighton": 2116,
      "ourney": 2117,
      "Ġconcl": 2118,
      "Eliza": 2119,
      "agreeable": 2120,
      "Ġexceedingly": 2121,
      "ĠHunsford": 2122,
      "Ġdoing": 2123,
      "olog": 2124,
      "Ġvoice": 2125,
      "Ġseveral": 2126,
      "Ġencour": 2127,
      "Ġcompan": 2128,
      "Ġhappened": 2129,
      "Ġgreater": 2130,
      "Ġpleasant": 2131,
      "Ġprinci": 2132,
      "Ġbegin": 2133,
      "Ġregiment": 2134,
      "Ġtrust": 2135,
      "Ġadmire": 2136,
      "Ġfollowed": 2137,
      "Ġacquainted": 2138,
      "Ġcountenance": 2139,
      "Ġmentioned": 2140,
      "Ġjoin": 2141,
      "Ġchief": 2142,
      "brary": 2143,
      "Ġpurpose": 2144,
      "Ġeasy": 2145,
      "Ġdisposition": 2146,
      "Ġbreakfast": 2147,
      "Ġattentions": 2148,
      "duced": 2149,
      "uriosity": 2150,
      "Lizzy": 2151,
      "ead": 2152,
      "iet": 2153,
      "sist": 2154,
      "ĠEliza": 2155,
      "Ġterm": 2156,
      "Ġpu": 2157,
      "Ġthing": 2158,
      "Ġsusp": 2159,
      "Ġsuccess": 2160,
      "aining": 2161,
      "urch": 2162,
      "ication": 2163,
      "Ġdegree": 2164,
      "Ġnephew": 2165,
      "ĠDerbyshire": 2166,
      "Ġstate": 2167,
      "Ġliving": 2168,
      "unate": 2169,
      "ĠSt": 2170,
      "osing": 2171,
      "Ġenjoy": 2172,
      "arest": 2173,
      "Ġattachment": 2174,
      "Ġpleasing": 2175,
      "Ġimpro": 2176,
      "aching": 2177,
      "Ġyounger": 2178,
      "ledged": 2179,
      "Ġfair": 2180,
      "ĠNo": 2181,
      "Ġdesire": 2182,
      "Ġassur": 2183,
      "soon": 2184,
      "Ġtruth": 2185,
      "Ġexpressed": 2186,
      "Ġwalking": 2187,
      "Ġlisten": 2188,
      "Ġgratitude": 2189,
      "Ġinformation": 2190,
      "Ġeleg": 2191,
      "Ġadmiration": 2192,
      "gratul": 2193,
      "Ġvex": 2194,
      "Ġauthor": 2195,
      "az": 2196,
      "affect": 2197,
      "did": 2198,
      "gment": 2199,
      "ili": 2200,
      "iety": 2201,
      "just": 2202,
      "ling": 2203,
      "long": 2204,
      "little": 2205,
      "ray": 2206,
      "went": 2207,
      "Ġut": 2208,
      "Ġri": 2209,
      "Ġap": 2210,
      "Ġwarm": 2211,
      "reet": 2212,
      "Ġmort": 2213,
      "Ġcold": 2214,
      "Ġfancy": 2215,
      "les": 2216,
      "Ġdread": 2217,
      "esday": 2218,
      "ents": 2219,
      "Ġsudden": 2220,
      "Ġund": 2221,
      "ĠLet": 2222,
      "icient": 2223,
      "ession": 2224,
      "There": 2225,
      "again": 2226,
      "ĠHad": 2227,
      "Ġstand": 2228,
      "think": 2229,
      "hens": 2230,
      "ested": 2231,
      "Ġdislike": 2232,
      "itten": 2233,
      "ĠAfter": 2234,
      "Ġknowledge": 2235,
      "Ġproceed": 2236,
      "Ġspent": 2237,
      "Ġcompar": 2238,
      "Ġattended": 2239,
      "Ġentreat": 2240,
      "Ġdescri": 2241,
      "Ġaddress": 2242,
      "Ġremained": 2243,
      "Ġassist": 2244,
      "ives": 2245,
      "ĠĠĠĠĠĠĠĠĠĠĠĠĠĠĠĠĠĠĠĠĠĠĠĠĠĠĠĠĠĠĠĠĠĠĠĠĠĠĠĠĠĠĠĠĠĠĠĠ": 2246,
      "Ġregret": 2247,
      "Ġhearing": 2248,
      "Ġoccur": 2249,
      "uded": 2250,
      "ploy": 2251,
      "Ġrelation": 2252,
      "Ġrelations": 2253,
      "Ġfollowing": 2254,
      "Ġmarrying": 2255,
      "Ġemploy": 2256,
      "pleasure": 2257,
      "Ġinterrupt": 2258,
      "Ġchange": 2259,
      "Ġlistened": 2260,
      "Ġhopes": 2261,
      "Ġprobably": 2262,
      "Ġpersuaded": 2263,
      "Ġtemper": 2264,
      "Ġneighbourhood": 2265,
      "Ġprevented": 2266,
      "Ġchildren": 2267,
      "Ġlarge": 2268,
      "Ġsatisfaction": 2269,
      "Ġpraise": 2270,
      "Collins": 2271,
      "Well": 2272,
      "bet": 2273,
      "father": 2274,
      "kind": 2275,
      "look": 2276,
      "sur": 2277,
      "ted": 2278,
      "udi": 2279,
      "vation": 2280,
      "Ġsake": 2281,
      "Ġsix": 2282,
      "reme": 2283,
      "reason": 2284,
      "Ġmile": 2285,
      "ndeed": 2286,
      "Ġhealth": 2287,
      "Ġfull": 2288,
      "Ġfalse": 2289,
      "ative": 2290,
      "Ġrej": 2291,
      "Ġgrie": 2292,
      "adam": 2293,
      "Ġconst": 2294,
      "Ġcongratul": 2295,
      "iced": 2296,
      "ical": 2297,
      "iful": 2298,
      "Ġneg": 2299,
      "ardon": 2300,
      "Ġanyone": 2301,
      "together": 2302,
      "ission": 2303,
      "Ġval": 2304,
      "aught": 2305,
      "Ġabove": 2306,
      "Ġabsol": 2307,
      "Ġpartial": 2308,
      "delight": 2309,
      "Ġjourney": 2310,
      "Ġcompany": 2311,
      "Ġworth": 2312,
      "before": 2313,
      "wel": 2314,
      "Ġplan": 2315,
      "claim": 2316,
      "comp": 2317,
      "Ġart": 2318,
      "licity": 2319,
      "Ġincreas": 2320,
      "Ġequally": 2321,
      "Ġdancing": 2322,
      "Ġevil": 2323,
      "expect": 2324,
      "Ġcircumstances": 2325,
      "aria": 2326,
      "Ġinclination": 2327,
      "Ġespecially": 2328,
      "Ġinquiries": 2329,
      "Ġeldest": 2330,
      "Ġdifficul": 2331,
      "Ġdrawing": 2332,
      "cellent": 2333,
      "Ġterms": 2334,
      "Lydia": 2335,
      "On": 2336,
      "act": 2337,
      "acc": 2338,
      "fer": 2339,
      "lu": 2340,
      "never": 2341,
      "rass": 2342,
      "sc": 2343,
      "Ġtimes": 2344,
      "Ġavoid": 2345,
      "Ġsitting": 2346,
      "rem": 2347,
      "rehens": 2348,
      "erhaps": 2349,
      "ons": 2350,
      "Ġmadam": 2351,
      "edly": 2352,
      "Ġcol": 2353,
      "Ġcreat": 2354,
      "Ġfall": 2355,
      "Ġfurther": 2356,
      "Ġfixed": 2357,
      "Ġniece": 2358,
      "Ġden": 2359,
      "Ġrelie": 2360,
      "Ġreceiving": 2361,
      "Ġnotice": 2362,
      "ĠMaria": 2363,
      "abl": 2364,
      "Ġforced": 2365,
      "eeper": 2366,
      "Ġdelic": 2367,
      "ĠCar": 2368,
      "ĠWith": 2369,
      "Ġwel": 2370,
      "formed": 2371,
      "ĠTheir": 2372,
      "Ġthank": 2373,
      "Ġprev": 2374,
      "Ġrun": 2375,
      "acquaint": 2376,
      "Ġcomprehend": 2377,
      "Ġwork": 2378,
      "Ġimpat": 2379,
      "Ġimportance": 2380,
      "fulness": 2381,
      "Ġdesir": 2382,
      "Ġproud": 2383,
      "Ġaffected": 2384,
      "Ġtrouble": 2385,
      "Ġconsidered": 2386,
      "Ġwomen": 2387,
      "Ġaffectionate": 2388,
      "Ġfortnight": 2389,
      "Ġcivil": 2390,
      "Ġdelighted": 2391,
      "Ġresolution": 2392,
      "Ġdirectly": 2393,
      "Ġextra": 2394,
      "Ġfavourite": 2395,
      "Ġmeeting": 2396,
      "Ġconnection": 2397,
      "Ġcommun": 2398,
      "Ġhoped": 2399,
      "happy": 2400,
      "Ġmistaken": 2401,
      "Ġloss": 2402,
      "Ġconceal": 2403,
      "Ġmonths": 2404,
      "barrass": 2405,
      "At": 2406,
      "After": 2407,
      "Catherine": 2408,
      "We": 2409,
      "ding": 2410,
      "ept": 2411,
      "great": 2412,
      "mother": 2413,
      "say": 2414,
      "ĠV": 2415,
      "Ġ----": 2416,
      "Ġtry": 2417,
      "Ġtaking": 2418,
      "rep": 2419,
      "resent": 2420,
      "ency": 2421,
      "Ġnone": 2422,
      "Ġpriv": 2423,
      "stairs": 2424,
      "Ġreached": 2425,
      "Ġlate": 2426,
      "rived": 2427,
      "ici": 2428,
      "Ġamaz": 2429,
      "Ġlight": 2430,
      "Ġlibrary": 2431,
      "Ġvi": 2432,
      "aste": 2433,
      "Ġwhenever": 2434,
      "Ġpartner": 2435,
      "Ġquar": 2436,
      "Ġquiet": 2437,
      "Ġgreatest": 2438,
      "ump": 2439,
      "Ġintended": 2440,
      "Ġdeser": 2441,
      "Ġused": 2442,
      "Ġcontr": 2443,
      "served": 2444,
      "sonage": 2445,
      "Ġexpression": 2446,
      "Ġwanted": 2447,
      "Ġconfess": 2448,
      "Ġdelightful": 2449,
      "present": 2450,
      "Ġdanger": 2451,
      "Ġsentiment": 2452,
      "Ġforget": 2453,
      "Ġpromised": 2454,
      "Ġtempt": 2455,
      "Ġfrequently": 2456,
      "Ġintelligence": 2457,
      "Ġchoose": 2458,
      "wenty": 2459,
      "ali": 2460,
      "certain": 2461,
      "first": 2462,
      "gent": 2463,
      "gry": 2464,
      "iod": 2465,
      "opp": 2466,
      "po": 2467,
      "rit": 2468,
      "sat": 2469,
      "val": 2470,
      "Ġ3": 2471,
      "Ġignor": 2472,
      "Ġsight": 2473,
      "rel": 2474,
      "Ġold": 2475,
      "ison": 2476,
      "Ġbad": 2477,
      "iteness": 2478,
      "Ġcuriosity": 2479,
      "Ġfond": 2480,
      "ash": 2481,
      "Ġdut": 2482,
      "Ġhint": 2483,
      "Ġpark": 2484,
      "Ġpaid": 2485,
      "Ġpict": 2486,
      "stood": 2487,
      "vel": 2488,
      "idence": 2489,
      "Ġled": 2490,
      "always": 2491,
      "ribut": 2492,
      "Ġsub": 2493,
      "arded": 2494,
      "Ġstru": 2495,
      "Ġamuse": 2496,
      "Ġcomes": 2497,
      "iling": 2498,
      "Ġuncom": 2499,
      "Ġvain": 2500,
      "using": 2501,
      "Ġsepar": 2502,
      "Ġproved": 2503,
      "Ġprospect": 2504,
      "Ġspee": 2505,
      "Ġround": 2506,
      "civ": 2507,
      "assion": 2508,
      "Ġplain": 2509,
      "Ġentertain": 2510,
      "Ġremember": 2511,
      "Ġscene": 2512,
      "Ġexpectation": 2513,
      "Ġwrote": 2514,
      "Ġwritten": 2515,
      "Ġrelated": 2516,
      "Ġinstru": 2517,
      "Ġinstead": 2518,
      "Ġreadily": 2519,
      "Ġengagement": 2520,
      "Ġeye": 2521,
      "aturday": 2522,
      "Ġreflect": 2523,
      "ordinary": 2524,
      "Ġestate": 2525,
      "Ġblame": 2526,
      "ĠEvery": 2527,
      "Ġforgot": 2528,
      "Ġevident": 2529,
      "Ġconcerned": 2530,
      "Ġunderstanding": 2531,
      "Ġanxiety": 2532,
      "Ġaffair": 2533,
      "desc": 2534,
      "iana": 2535,
      "Ġsummer": 2536,
      "humour": 2537,
      "ucky": 2538,
      "Ġcapable": 2539,
      "Ġsuperior": 2540,
      "Ġmotive": 2541,
      "Ġprincip": 2542,
      "Ġpub": 2543,
      "Ġapolog": 2544,
      "acquaintance": 2545,
      "Ġviol": 2546,
      "Indeed": 2547,
      "bation": 2548,
      "gg": 2549,
      "gn": 2550,
      "gy": 2551,
      "kes": 2552,
      "keeper": 2553,
      "lay": 2554,
      "might": 2555,
      "ob": 2556,
      "ring": 2557,
      "under": 2558,
      "Ġ4": 2559,
      "Ġed": 2560,
      "ĠâĢĺ": 2561,
      "Ġtone": 2562,
      "Ġtried": 2563,
      "reed": 2564,
      "has": 2565,
      "Ġbo": 2566,
      "Ġmer": 2567,
      "Ġcause": 2568,
      "Ġdine": 2569,
      "Ġdrew": 2570,
      "Ġincon": 2571,
      "ath": 2572,
      "Ġpun": 2573,
      "Ġpause": 2574,
      "omin": 2575,
      "Ġease": 2576,
      "Ġready": 2577,
      "Ġangry": 2578,
      "illy": 2579,
      "Ġleaving": 2580,
      "ĠWell": 2581,
      "ously": 2582,
      "Ġperiod": 2583,
      "oline": 2584,
      "Ġalarm": 2585,
      "Ġvent": 2586,
      "osure": 2587,
      "Ġprop": 2588,
      "Ġfelicity": 2589,
      "hamed": 2590,
      "Ġrid": 2591,
      "Ġthinking": 2592,
      "ieces": 2593,
      "Ġfact": 2594,
      "ĠThat": 2595,
      "without": 2596,
      "viction": 2597,
      "Ġobjection": 2598,
      "Ġspoken": 2599,
      "Ġpursu": 2600,
      "Ġembarrass": 2601,
      "Ġextreme": 2602,
      "Ġindifferent": 2603,
      "Ġstep": 2604,
      "Ġpromise": 2605,
      "Ġcharming": 2606,
      "Ġinteresting": 2607,
      "Ġparticulars": 2608,
      "Ġcircumstance": 2609,
      "rudent": 2610,
      "Ġwait": 2611,
      "Ġrecommend": 2612,
      "Ġacknowledged": 2613,
      "Ġscheme": 2614,
      "Ġcompanion": 2615,
      "Ġabsolutely": 2616,
      "satisf": 2617,
      "Ġpublic": 2618,
      "Do": 2619,
      "cu": 2620,
      "chan": 2621,
      "cked": 2622,
      "cceed": 2623,
      "el": 2624,
      "even": 2625,
      "fa": 2626,
      "giana": 2627,
      "iest": 2628,
      "ode": 2629,
      "rance": 2630,
      "two": 2631,
      "while": 2632,
      "heard": 2633,
      "Ġtreat": 2634,
      "Ġtaste": 2635,
      "Ġwit": 2636,
      "Ġsy": 2637,
      "Ġsit": 2638,
      "Ġmus": 2639,
      "Ġindi": 2640,
      "Ġbeh": 2641,
      "ett": 2642,
      "Ġear": 2643,
      "Ġret": 2644,
      "uture": 2645,
      "Ġashamed": 2646,
      "about": 2647,
      "Ġformed": 2648,
      "irm": 2649,
      "Ġconviction": 2650,
      "Their": 2651,
      "Ġkept": 2652,
      "Ġexam": 2653,
      "Ġexcess": 2654,
      "Ġexcellent": 2655,
      "ards": 2656,
      "Ġnobody": 2657,
      "ĠSaturday": 2658,
      "Ġunless": 2659,
      "Ġafford": 2660,
      "ĠAn": 2661,
      "Ġvanity": 2662,
      "erty": 2663,
      "Ġcompl": 2664,
      "Ġshare": 2665,
      "Ġupstairs": 2666,
      "weet": 2667,
      "Ġplac": 2668,
      "overed": 2669,
      "Ġdesp": 2670,
      "Ġlikewise": 2671,
      "Ġaddressed": 2672,
      "Ġremoved": 2673,
      "iously": 2674,
      "Ġopened": 2675,
      "Ġhousekeeper": 2676,
      "Ġjustice": 2677,
      "willing": 2678,
      "play": 2679,
      "Ġmater": 2680,
      "Ġbecame": 2681,
      "Ġdistress": 2682,
      "Ġchoice": 2683,
      "Ġengage": 2684,
      "Ġhard": 2685,
      "Ġsincere": 2686,
      "Ġmisery": 2687,
      "Ġestee": 2688,
      "course": 2689,
      "Ġdining": 2690,
      "Ġweeks": 2691,
      "Ġpersuade": 2692,
      "Ġinflu": 2693,
      "Ġadvice": 2694,
      "Ġsuffer": 2695,
      "feelings": 2696,
      "Ġrank": 2697,
      "ĠXXX": 2698,
      "morrow": 2699,
      "Ġcomplete": 2700,
      "priety": 2701,
      "Ġmiles": 2702,
      "ĠCaroline": 2703,
      "Ġspeech": 2704,
      ".âĢĻ": 2705,
      ";--": 2706,
      "IN": 2707,
      "aven": 2708,
      "bit": 2709,
      "daughter": 2710,
      "ec": 2711,
      "family": 2712,
      "go": 2713,
      "give": 2714,
      "kward": 2715,
      "pon": 2716,
      "tered": 2717,
      "visit": 2718,
      "wr": 2719,
      "Ġet": 2720,
      "Ġir": 2721,
      "ines": 2722,
      "Ġsweet": 2723,
      "ergy": 2724,
      "isure": 2725,
      "Ġmod": 2726,
      "edding": 2727,
      "Ġfam": 2728,
      "Ġfart": 2729,
      "arily": 2730,
      "arnt": 2731,
      "arsonage": 2732,
      "Ġdri": 2733,
      "ates": 2734,
      "Ġpay": 2735,
      "live": 2736,
      "Ġres": 2737,
      "Ġsuspect": 2738,
      "Ġconsent": 2739,
      "ames": 2740,
      "Ġdebt": 2741,
      "Ġdeceived": 2742,
      "ifying": 2743,
      "Ġleisure": 2744,
      "Ġstri": 2745,
      "Ġstood": 2746,
      "Ġstud": 2747,
      "Ġweak": 2748,
      "Ġuneas": 2749,
      "Ġperform": 2750,
      "Ġage": 2751,
      "Ġthanks": 2752,
      "Ġseated": 2753,
      "ertin": 2754,
      "Ġotherwise": 2755,
      "teen": 2756,
      "ression": 2757,
      "Ġjoy": 2758,
      "Ġquick": 2759,
      "connect": 2760,
      "consid": 2761,
      "Ġration": 2762,
      "Ġcomposure": 2763,
      "Ġworse": 2764,
      "arent": 2765,
      "Ġrepro": 2766,
      "Ġreport": 2767,
      "Ġsays": 2768,
      "Ġapprehens": 2769,
      "Ġplease": 2770,
      "interest": 2771,
      "ĠParsonage": 2772,
      "coming": 2773,
      "Ġintention": 2774,
      "Ġbelief": 2775,
      "Ġarrived": 2776,
      "Ġletters": 2777,
      "mean": 2778,
      "ĠĠĠĠĠĠĠĠĠĠĠĠĠĠĠĠĠĠĠĠĠĠĠĠĠĠĠĠĠĠĠĠĠĠĠĠ": 2779,
      "Ġsmiled": 2780,
      "Ġwrong": 2781,
      "ception": 2782,
      "Ġtran": 2783,
      "ĠKent": 2784,
      "retched": 2785,
      "Ġgenerally": 2786,
      "Ġdistance": 2787,
      "Ġchose": 2788,
      "known": 2789,
      "Ġobservation": 2790,
      "ĠXL": 2791,
      "Ġoppos": 2792,
      "Ġbeautiful": 2793,
      "Ġconnections": 2794,
      "Ġasking": 2795,
      "Ġcharm": 2796,
      "Ġlively": 2797,
      "Ġawkward": 2798,
      "Ġflatter": 2799,
      "rudence": 2800,
      "Ġaccepted": 2801,
      "Ġesc": 2802,
      "Ġrequest": 2803,
      "cannot": 2804,
      "Ġjudgment": 2805,
      "Ġtolerable": 2806,
      "Ġaccompl": 2807,
      "Ġresentment": 2808,
      "Ġwindow": 2809,
      "Ġsuspic": 2810,
      "Ġelegant": 2811,
      "Ġrejo": 2812,
      "Ġneglect": 2813,
      "Ġduty": 2814,
      "Ġpicture": 2815,
      "Ġextremely": 2816,
      "culi": 2817,
      "favour": 2818,
      "Ġinfluence": 2819,
      "Ġfamili": 2820,
      "Ġfarther": 2821,
      "_.âĢĿ": 2822,
      "after": 2823,
      "gl": 2824,
      "land": 2825,
      "law": 2826,
      "made": 2827,
      "moment": 2828,
      "occ": 2829,
      "pect": 2830,
      "sha": 2831,
      "time": 2832,
      "wice": 2833,
      "Ġtall": 2834,
      "ining": 2835,
      "inst": 2836,
      "Ġwinter": 2837,
      "Ġwedding": 2838,
      "requ": 2839,
      "having": 2840,
      "err": 2841,
      "enough": 2842,
      "enef": 2843,
      "Ġfool": 2844,
      "Ġfuture": 2845,
      "ars": 2846,
      "letter": 2847,
      "Ġdue": 2848,
      "Ġdeep": 2849,
      "orn": 2850,
      "Ġhig": 2851,
      "Ġinj": 2852,
      "otested": 2853,
      "Ġrenew": 2854,
      "Ġlose": 2855,
      "terday": 2856,
      "add": 2857,
      "Ġanger": 2858,
      "Ġdearest": 2859,
      "Ġexert": 2860,
      "Ġlearn": 2861,
      "Ġnoble": 2862,
      "Ġlived": 2863,
      "Ġunl": 2864,
      "Ġunable": 2865,
      "ateful": 2866,
      "Ġagree": 2867,
      "Ġprov": 2868,
      "Ġprovo": 2869,
      "Ġprep": 2870,
      "Ġprefer": 2871,
      "Ġfell": 2872,
      "Ġspend": 2873,
      "hame": 2874,
      "conversation": 2875,
      "Ġhappen": 2876,
      "belie": 2877,
      "necess": 2878,
      "Ġimpertin": 2879,
      "Ġyoungest": 2880,
      "Ġfault": 2881,
      "Ġremain": 2882,
      "Ġconsol": 2883,
      "Ġpray": 2884,
      "Ġsupposing": 2885,
      "Ġaccord": 2886,
      "Ġground": 2887,
      "ext": 2888,
      "lication": 2889,
      "Ġlooks": 2890,
      "anything": 2891,
      "Ġpersons": 2892,
      "disc": 2893,
      "ĠGeorgiana": 2894,
      "Ġdanced": 2895,
      "Ġindul": 2896,
      "Ġindifference": 2897,
      "Ġchance": 2898,
      "Ġquestions": 2899,
      "Ġgratified": 2900,
      "III": 2901,
      "Ġastonished": 2902,
      "Ġdisposed": 2903,
      "Ġaware": 2904,
      "Ġgrave": 2905,
      "Ġdeclared": 2906,
      "Ġdecided": 2907,
      "Ġpatron": 2908,
      "Ġdisappointment": 2909,
      "Ġroad": 2910,
      "Ġtriump": 2911,
      "Ġtolerably": 2912,
      "continu": 2913,
      "Ġwatch": 2914,
      "ounced": 2915,
      "Ġpoliteness": 2916,
      "Ġassurance": 2917,
      "Ġsuddenly": 2918,
      "Ġcomparison": 2919,
      "Ġcolour": 2920,
      "Ġcreature": 2921,
      "Ġwelcome": 2922,
      "Ġprincipal": 2923,
      "Ġbehind": 2924,
      "Ġetc": 2925,
      "From": 2926,
      "Is": 2927,
      "Upon": 2928,
      "Yet": 2929,
      "ale": 2930,
      "apt": 2931,
      "count": 2932,
      "dist": 2933,
      "each": 2934,
      "either": 2935,
      "hope": 2936,
      "jud": 2937,
      "low": 2938,
      "mp": 2939,
      "min": 2940,
      "make": 2941,
      "nat": 2942,
      "pid": 2943,
      "said": 2944,
      "tr": 2945,
      "ule": 2946,
      "uable": 2947,
      "ude": 2948,
      "uesday": 2949,
      "vice": 2950,
      "wom": 2951,
      "heart": 2952,
      "Ġtra": 2953,
      "Ġtea": 2954,
      "Ġwretched": 2955,
      "Ġsilly": 2956,
      "ref": 2957,
      "Ġow": 2958,
      "Ġbu": 2959,
      "Ġbow": 2960,
      "itated": 2961,
      "ingu": 2962,
      "Ġfif": 2963,
      "Ġfurn": 2964,
      "aring": 2965,
      "Ġnieces": 2966,
      "Ġdifference": 2967,
      "angu": 2968,
      "Ġpardon": 2969,
      "ĠIs": 2970,
      "lig": 2971,
      "âĢľ_": 2972,
      "vell": 2973,
      "Ġeight": 2974,
      "Ġreject": 2975,
      "Ġassemb": 2976,
      "Ġlow": 2977,
      "Ġthir": 2978,
      "irt": 2979,
      "rig": 2980,
      "Ġcondesc": 2981,
      "ender": 2982,
      "Ġexclaim": 2983,
      "Ġlearnt": 2984,
      "arden": 2985,
      "ĠDenn": 2986,
      "ĠWhy": 2987,
      "Ġyours": 2988,
      "ĠSuch": 2989,
      "Ġdisplay": 2990,
      "olunt": 2991,
      "Ġalter": 2992,
      "usal": 2993,
      "Ġparted": 2994,
      "Ġparties": 2995,
      "inson": 2996,
      "concern": 2997,
      "Ġcompassion": 2998,
      "supp": 2999,
      "suff": 3000,
      "Ġrepresent": 3001,
      "Ġgreatly": 3002,
      "Ġapplied": 3003,
      "neighbour": 3004,
      "spir": 3005,
      "ears": 3006,
      "ucation": 3007,
      "Ġenter": 3008,
      "Ġremem": 3009,
      "ize": 3010,
      "Ġaccident": 3011,
      "serve": 3012,
      "Ġmeaning": 3013,
      "Ġwishing": 3014,
      "felt": 3015,
      "Ġadmired": 3016,
      "Ġcalling": 3017,
      "Ġdistressed": 3018,
      "ĠLucases": 3019,
      "appro": 3020,
      "Ġcourage": 3021,
      "Ġfortunate": 3022,
      "Ġfinding": 3023,
      "Ġimmediate": 3024,
      "Ġideas": 3025,
      "Ġrespectable": 3026,
      "myself": 3027,
      "particul": 3028,
      "Ġclaim": 3029,
      "Ġcomfortable": 3030,
      "Ġprobable": 3031,
      "Ġhumour": 3032,
      "ibly": 3033,
      "Ġrecollected": 3034,
      "manner": 3035,
      "Ġopening": 3036,
      "Ġbooks": 3037,
      "Ġeagerly": 3038,
      "Ġcheer": 3039,
      "seemed": 3040,
      "Ġstranger": 3041,
      "Ġaccomp": 3042,
      "Ġdisgrace": 3043,
      "Ġrich": 3044,
      "between": 3045,
      "surpr": 3046,
      "reasonable": 3047,
      "Ġdifficult": 3048,
      "Ġrelief": 3049,
      "Ġignorant": 3050,
      "Ġforgotten": 3051,
      "Ġboast": 3052,
      "natured": 3053,
      "ĠDenny": 3054,
      "Long": 3055,
      "Pemberley": 3056,
      "Why": 3057,
      "ape": 3058,
      "cot": 3059,
      "cise": 3060,
      "cause": 3061,
      "circumst": 3062,
      "doubt": 3063,
      "ement": 3064,
      "ghed": 3065,
      "gener": 3066,
      "hor": 3067,
      "house": 3068,
      "lour": 3069,
      "last": 3070,
      "natur": 3071,
      "oving": 3072,
      "ock": 3073,
      "spe": 3074,
      "since": 3075,
      "voured": 3076,
      "walk": 3077,
      "Ġ*": 3078,
      "Ġerr": 3079,
      "Ġtwice": 3080,
      "Ġwood": 3081,
      "Ġsour": 3082,
      "Ġshame": 3083,
      "resp": 3084,
      "ening": 3085,
      "ony": 3086,
      "ises": 3087,
      "Ġbenef": 3088,
      "Ġtot": 3089,
      "Ġcal": 3090,
      "Ġcross": 3091,
      "Ġcaught": 3092,
      "Ġheight": 3093,
      "Ġfire": 3094,
      "Ġdared": 3095,
      "ldom": 3096,
      "chie": 3097,
      "Ġgained": 3098,
      "Ġitself": 3099,
      "Ġlau": 3100,
      "Ġlately": 3101,
      "Ġwhis": 3102,
      "Ġsucceed": 3103,
      "Ġcontempt": 3104,
      "amma": 3105,
      "ics": 3106,
      "Ġdefect": 3107,
      "Ġdepart": 3108,
      "Ġdelay": 3109,
      "ify": 3110,
      "ĠCh": 3111,
      "ĠDe": 3112,
      "Ġstory": 3113,
      "these": 3114,
      "Ġlips": 3115,
      "inded": 3116,
      "Ġagreed": 3117,
      "Ġvar": 3118,
      "Ġpress": 3119,
      "ortant": 3120,
      "rying": 3121,
      "consequ": 3122,
      "accept": 3123,
      "subject": 3124,
      "Ġsooner": 3125,
      "Ġentail": 3126,
      "Ġentrance": 3127,
      "opement": 3128,
      "Ġassert": 3129,
      "Ġarran": 3130,
      "Ġsupport": 3131,
      "ĠFrom": 3132,
      "young": 3133,
      "Ġgrateful": 3134,
      "Ġwriting": 3135,
      "Ġunderstood": 3136,
      "Ġchaise": 3137,
      "place": 3138,
      "Ġexpressions": 3139,
      "Ġgenerous": 3140,
      "Ġturning": 3141,
      "Ġreading": 3142,
      "Ġvisitors": 3143,
      "Ġfollow": 3144,
      "Ġinvited": 3145,
      "duction": 3146,
      "Ġconfidence": 3147,
      "Ġpeculi": 3148,
      "Ġobserving": 3149,
      "ĠOne": 3150,
      "Ġmisfort": 3151,
      "attention": 3152,
      "Ġestabl": 3153,
      "Ġshortly": 3154,
      "Ġoccasionally": 3155,
      "pleasant": 3156,
      "Ġsentence": 3157,
      "Ġinterference": 3158,
      "Ġpainful": 3159,
      "Ġconnected": 3160,
      "atures": 3161,
      "Ġdetermine": 3162,
      "therefore": 3163,
      "Ġspirit": 3164,
      "Ġrecollection": 3165,
      "everything": 3166,
      "Ġpossibility": 3167,
      "Ġsmallest": 3168,
      "marriage": 3169,
      "Ġparish": 3170,
      "Ġexcuse": 3171,
      "Ġdisappointed": 3172,
      "Ġfrequent": 3173,
      "Ġyesterday": 3174,
      "Ġcoach": 3175,
      "Ġprofess": 3176,
      "Ġintimate": 3177,
      "something": 3178,
      "Ġsingle": 3179,
      "character": 3180,
      "Ġbeginning": 3181,
      "ĠStreet": 3182,
      "Ġstanding": 3183,
      "Ġoccurred": 3184,
      "looking": 3185,
      "Ġconstant": 3186,
      "welve": 3187,
      "Ġincreased": 3188,
      "Ġdelicacy": 3189,
      "Ġprevailed": 3190,
      "Ġextraordinary": 3191,
      "Ġsentiments": 3192,
      "Ġuncommon": 3193,
      "civil": 3194,
      "Ġmusic": 3195,
      "Ġindign": 3196,
      "Ġrational": 3197,
      "Ġapprehension": 3198,
      "Ġopposite": 3199,
      "necessary": 3200,
      "Longbourn": 3201,
      "Ġlaughed": 3202,
      "All": 3203,
      "Colonel": 3204,
      "For": 3205,
      "Netherfield": 3206,
      "Perhaps": 3207,
      "Very": 3208,
      "awn": 3209,
      "che": 3210,
      "came": 3211,
      "det": 3212,
      "done": 3213,
      "found": 3214,
      "ho": 3215,
      "hil": 3216,
      "ivers": 3217,
      "mission": 3218,
      "nold": 3219,
      "overy": 3220,
      "pass": 3221,
      "rim": 3222,
      "side": 3223,
      "too": 3224,
      "then": 3225,
      "ued": 3226,
      "uss": 3227,
      "wis": 3228,
      "yle": 3229,
      "hest": 3230,
      "Ġtou": 3231,
      "Ġwild": 3232,
      "Ġsick": 3233,
      "rest": 3234,
      "recy": 3235,
      "received": 3236,
      "onounced": 3237,
      "ism": 3238,
      "Ġbro": 3239,
      "Ġbless": 3240,
      "iture": 3241,
      "ndered": 3242,
      "Ġclot": 3243,
      "Ġcollect": 3244,
      "Ġhes": 3245,
      "Ġfast": 3246,
      "Ġfash": 3247,
      "asions": 3248,
      "arity": 3249,
      "let": 3250,
      "lection": 3251,
      "Ġdrove": 3252,
      "Ġdwell": 3253,
      "anied": 3254,
      "Ġhall": 3255,
      "Ġpit": 3256,
      "Ġpost": 3257,
      "Ġpract": 3258,
      "lying": 3259,
      "ets": 3260,
      "lir": 3261,
      "liest": 3262,
      "Ġyield": 3263,
      "imation": 3264,
      "Ġyouth": 3265,
      "Ġrendered": 3266,
      "uted": 3267,
      "Ġgall": 3268,
      "Ġgives": 3269,
      "Ġloved": 3270,
      "alous": 3271,
      "almost": 3272,
      "Ġann": 3273,
      "Ġsolic": 3274,
      "Ġconject": 3275,
      "amp": 3276,
      "ambt": 3277,
      "quest": 3278,
      "ift": 3279,
      "ific": 3280,
      "aging": 3281,
      "Ġstart": 3282,
      "Ġstyle": 3283,
      "thousand": 3284,
      "ilt": 3285,
      "Ġunf": 3286,
      "Ġunhappy": 3287,
      "Ġunwilling": 3288,
      "Ġshook": 3289,
      "Ġknows": 3290,
      "Ġaloud": 3291,
      "Ġvari": 3292,
      "Ġvirt": 3293,
      "others": 3294,
      "ĠBennets": 3295,
      "Ġabomin": 3296,
      "Ġproduced": 3297,
      "ishing": 3298,
      "conf": 3299,
      "cons": 3300,
      "often": 3301,
      "Ġattend": 3302,
      "Ġmarked": 3303,
      "beha": 3304,
      "Ġimprove": 3305,
      "umer": 3306,
      "Ġbelieving": 3307,
      "lty": 3308,
      "tens": 3309,
      "Ġconsist": 3310,
      "Ġargu": 3311,
      "Ġsmiling": 3312,
      "fortunate": 3313,
      "lemn": 3314,
      "igned": 3315,
      "Ġpassing": 3316,
      "Ġsubjects": 3317,
      "vantages": 3318,
      "Ġwants": 3319,
      "acknow": 3320,
      "Ġrecover": 3321,
      "Ġchurch": 3322,
      "Ġcourt": 3323,
      "Ġfolly": 3324,
      "month": 3325,
      "oubtedly": 3326,
      "apable": 3327,
      "Ġobserve": 3328,
      "Ġconsidering": 3329,
      "Ġconsideration": 3330,
      "Ġconsiderable": 3331,
      "Ġstaying": 3332,
      "Ġdirection": 3333,
      "Ġpurcha": 3334,
      "Ġblus": 3335,
      "Ġactually": 3336,
      "Ġinquire": 3337,
      "Ġoblig": 3338,
      "Ġsteady": 3339,
      "pendence": 3340,
      "Ġcharge": 3341,
      "Ġguard": 3342,
      "Ġnecessity": 3343,
      "Ġfears": 3344,
      "Ġsecure": 3345,
      "Ġsecret": 3346,
      "Ġsecrecy": 3347,
      "Ġpossess": 3348,
      "Ġnaturally": 3349,
      "sides": 3350,
      "Ġamongst": 3351,
      "ĠĠĠĠĠĠĠĠĠĠĠĠĠĠĠĠĠĠĠĠĠĠĠĠĠĠĠĠĠĠĠĠĠĠĠĠĠĠĠĠĠĠĠĠĠ": 3352,
      "ĠĠĠĠĠĠĠĠĠĠĠĠĠĠĠĠĠĠĠĠĠĠĠĠĠĠĠĠĠĠĠĠĠĠĠĠĠĠĠĠĠĠĠĠĠĠ": 3353,
      "Ġrapt": 3354,
      "Ġelder": 3355,
      "Ġviews": 3356,
      "ront": 3357,
      "Ġexcited": 3358,
      "Ġjudge": 3359,
      "Ġtrif": 3360,
      "Ġintroduce": 3361,
      "Ġearnestly": 3362,
      "however": 3363,
      "Ġstrange": 3364,
      "Ġbringing": 3365,
      "Ġservants": 3366,
      "Ġhurry": 3367,
      "ĠThough": 3368,
      "Ġintimacy": 3369,
      "Ġproposal": 3370,
      "eynold": 3371,
      "Ġenjoyment": 3372,
      "affection": 3373,
      "Ġutmost": 3374,
      "Ġassistance": 3375,
      "Ġrelationship": 3376,
      "Ġgrieved": 3377,
      "Ġvalue": 3378,
      "Ġpartiality": 3379,
      "expected": 3380,
      "Ġdesirable": 3381,
      "Ġcommunication": 3382,
      "Ġprivate": 3383,
      "Ġamazement": 3384,
      "Ġquarter": 3385,
      "poss": 3386,
      "Ġstruck": 3387,
      "Ġinstrument": 3388,
      "understand": 3389,
      "Ġeducation": 3390,
      "Ġinconven": 3391,
      "Ġengagements": 3392,
      "Ġesteem": 3393,
      "Ġdebts": 3394,
      "Ġstudy": 3395,
      "Ġescape": 3396,
      "Ġunlucky": 3397,
      "Ġwhisper": 3398,
      "Ġclothes": 3399,
      "ambton": 3400,
      "Ġvirtue": 3401,
      "eynolds": 3402,
      "/*": 3403,
      "Good": 3404,
      "IV": 3405,
      "Kitty": 3406,
      "Let": 3407,
      "Meryton": 3408,
      "So": 3409,
      "VI": 3410,
      "aper": 3411,
      "bed": 3412,
      "bable": 3413,
      "bered": 3414,
      "cent": 3415,
      "drew": 3416,
      "equ": 3417,
      "girl": 3418,
      "husband": 3419,
      "ier": 3420,
      "judi": 3421,
      "kinson": 3422,
      "mas": 3423,
      "nesday": 3424,
      "oor": 3425,
      "object": 3426,
      "rink": 3427,
      "rist": 3428,
      "sm": 3429,
      "sed": 3430,
      "sett": 3431,
      "till": 3432,
      "took": 3433,
      "twenty": 3434,
      "vag": 3435,
      "vol": 3436,
      "want": 3437,
      "Ġid": 3438,
      "ĠYet": 3439,
      "hether": 3440,
      "Ġtru": 3441,
      "Ġtwenty": 3442,
      "Ġav": 3443,
      "inqu": 3444,
      "Ġsign": 3445,
      "return": 3446,
      "respect": 3447,
      "Ġorig": 3448,
      "erable": 3449,
      "ouple": 3450,
      "ences": 3451,
      "enkinson": 3452,
      "onour": 3453,
      "Ġbit": 3454,
      "ital": 3455,
      "itable": 3456,
      "Ġma": 3457,
      "Ġmed": 3458,
      "Ġmine": 3459,
      "Ġmakes": 3460,
      "Ġmamma": 3461,
      "ednesday": 3462,
      "Ġcaut": 3463,
      "Ġcrue": 3464,
      "Ġfree": 3465,
      "Ġfig": 3466,
      "llable": 3467,
      "Ġdest": 3468,
      "Ġhold": 3469,
      "Ġinformed": 3470,
      "Ġinsuff": 3471,
      "Ġbelong": 3472,
      "Ġbesides": 3473,
      "Ġpast": 3474,
      "Ġparent": 3475,
      "omp": 3476,
      "omy": 3477,
      "etition": 3478,
      "strong": 3479,
      "ented": 3480,
      "church": 3481,
      "Ġgen": 3482,
      "Ġgarden": 3483,
      "Ġlane": 3484,
      "Ġline": 3485,
      "Ġlines": 3486,
      "Ġthither": 3487,
      "Ġthrew": 3488,
      "advantage": 3489,
      "Ġant": 3490,
      "ĠLord": 3491,
      "ĠLambton": 3492,
      "Ġdep": 3493,
      "ification": 3494,
      "Then": 3495,
      "Ġnearly": 3496,
      "Ġexist": 3497,
      "Ġlead": 3498,
      "Ġsacri": 3499,
      "Ġstre": 3500,
      "Ġstopp": 3501,
      "thr": 3502,
      "thought": 3503,
      "ĠSund": 3504,
      "ĠScot": 3505,
      "Ġshow": 3506,
      "Ġdisd": 3507,
      "issed": 3508,
      "Ġperceived": 3509,
      "Ġseldom": 3510,
      "ption": 3511,
      "Ġpreference": 3512,
      "Ġfeared": 3513,
      "ortion": 3514,
      "tem": 3515,
      "Ġspared": 3516,
      "Ġje": 3517,
      "itely": 3518,
      "Ġquit": 3519,
      "Ġquitted": 3520,
      "Ġobt": 3521,
      "Ġattract": 3522,
      "onday": 3523,
      "next": 3524,
      "Ġgoodness": 3525,
      "Ġoffered": 3526,
      "Ġfriendship": 3527,
      "ĠPerhaps": 3528,
      "compos": 3529,
      "Ġlonged": 3530,
      "ĠTuesday": 3531,
      "Ġaddition": 3532,
      "ized": 3533,
      "Ġsupper": 3534,
      "rightened": 3535,
      "Ġspeed": 3536,
      "lessness": 3537,
      "Ġoccup": 3538,
      "Ġrelate": 3539,
      "Ġobjections": 3540,
      "Ġinstant": 3541,
      "Ġformal": 3542,
      "Ġbecome": 3543,
      "Ġdistin": 3544,
      "appear": 3545,
      "ĠReynolds": 3546,
      "Ġmoments": 3547,
      "Ġsatisfy": 3548,
      "dispos": 3549,
      "Ġreasonable": 3550,
      "Ġelopement": 3551,
      "Ġrefuse": 3552,
      "Ġincapable": 3553,
      "Ġhonoured": 3554,
      "attered": 3555,
      "brother": 3556,
      "Ġheartily": 3557,
      "Ġclose": 3558,
      "Ġfresh": 3559,
      "Ġprobability": 3560,
      "Ġendeavoured": 3561,
      "Ġneighbours": 3562,
      "happiness": 3563,
      "Ġmistake": 3564,
      "Ġdiscuss": 3565,
      "eased": 3566,
      "upid": 3567,
      "Ġinclined": 3568,
      "Ġgracious": 3569,
      "Ġconsequently": 3570,
      "Ġrequired": 3571,
      "Ġcompliments": 3572,
      "Ġattentive": 3573,
      "Ġdeclare": 3574,
      "racechurch": 3575,
      "Ġseriously": 3576,
      "Ġsummon": 3577,
      "Ġrapid": 3578,
      "Ġpatience": 3579,
      "Ġapproaching": 3580,
      "Ġexplan": 3581,
      "Ġexplained": 3582,
      "morning": 3583,
      "Ġorder": 3584,
      "Ġremarkably": 3585,
      "undred": 3586,
      "worth": 3587,
      "Ġclear": 3588,
      "Ġclever": 3589,
      "Ġhurried": 3590,
      "Ġdirected": 3591,
      "Ġshock": 3592,
      "Ġdisgust": 3593,
      "Ġproposals": 3594,
      "ounter": 3595,
      "Ġchiefly": 3596,
      "Ġassurances": 3597,
      "Ġlistening": 3598,
      "Ġvexation": 3599,
      "Ġauthority": 3600,
      "Ġproceeded": 3601,
      "Ġcongratulations": 3602,
      "Ġimpatience": 3603,
      "Ġcommunic": 3604,
      "icip": 3605,
      "gentlem": 3606,
      "Ġamusement": 3607,
      "Ġembarrassment": 3608,
      "Ġexcessively": 3609,
      "Ġmaterial": 3610,
      "Ġaccomplished": 3611,
      "Ġsuspicion": 3612,
      "Ġrejoiced": 3613,
      "occasion": 3614,
      "Ġhighest": 3615,
      "Ġfellow": 3616,
      "Ġconsolation": 3617,
      "woman": 3618,
      "Ġtravell": 3619,
      "neighbourhood": 3620,
      "Ġremembered": 3621,
      "Ġ*/": 3622,
      "respond": 3623,
      "Ġfashion": 3624,
      "Ġimprovement": 3625,
      "judice": 3626,
      "Ġorigin": 3627,
      "Ġsacrif": 3628,
      "ĠSunday": 3629,
      "!--": 3630,
      "An": 3631,
      "Are": 3632,
      "Certain": 3633,
      "Hertfordshire": 3634,
      "Lucas": 3635,
      "Mary": 3636,
      "ND": 3637,
      "Sir": 3638,
      "Un": 3639,
      "af": 3640,
      "business": 3641,
      "cal": 3642,
      "cous": 3643,
      "ches": 3644,
      "down": 3645,
      "fin": 3646,
      "foll": 3647,
      "ffort": 3648,
      "gra": 3649,
      "iven": 3650,
      "laugh": 3651,
      "ladies": 3652,
      "many": 3653,
      "ned": 3654,
      "pit": 3655,
      "sure": 3656,
      "sil": 3657,
      "saw": 3658,
      "tÃ": 3659,
      "talk": 3660,
      "vous": 3661,
      "view": 3662,
      "whether": 3663,
      "xion": 3664,
      "ªte": 3665,
      "Ġtre": 3666,
      "Ġtaught": 3667,
      "Ġtears": 3668,
      "Ġtwelve": 3669,
      "rence": 3670,
      "resh": 3671,
      "hand": 3672,
      "ision": 3673,
      "isance": 3674,
      "Ġbor": 3675,
      "Ġbene": 3676,
      "Ġcr": 3677,
      "Ġcir": 3678,
      "Ġcere": 3679,
      "Ġcau": 3680,
      "Ġcens": 3681,
      "Ġcoff": 3682,
      "Ġcouple": 3683,
      "Ġflir": 3684,
      "armed": 3685,
      "arrow": 3686,
      "Ġner": 3687,
      "Ġnice": 3688,
      "Ġdro": 3689,
      "Ġdiv": 3690,
      "Ġdign": 3691,
      "Ġdances": 3692,
      "orm": 3693,
      "Ġinn": 3694,
      "Ġinduce": 3695,
      "ater": 3696,
      "atig": 3697,
      "anch": 3698,
      "another": 3699,
      "answ": 3700,
      "Ġhate": 3701,
      "Ġpity": 3702,
      "omest": 3703,
      "ĠĠĠĠĠ": 3704,
      "liber": 3705,
      "vere": 3706,
      "entions": 3707,
      "Ġelig": 3708,
      "Ġeffort": 3709,
      "verness": 3710,
      "seen": 3711,
      "child": 3712,
      "Ġnote": 3713,
      "Ġnotion": 3714,
      "Ġnoticed": 3715,
      "Ġgown": 3716,
      "ĠMonday": 3717,
      "Ġlod": 3718,
      "Ġlaid": 3719,
      "Ġluck": 3720,
      "irth": 3721,
      "adm": 3722,
      "Ġsugg": 3723,
      "ĠBy": 3724,
      "Ġur": 3725,
      "Ġsol": 3726,
      "Ġsole": 3727,
      "Ġsolemn": 3728,
      "ains": 3729,
      "pped": 3730,
      "ament": 3731,
      "Ġmem": 3732,
      "Ġdeath": 3733,
      "endation": 3734,
      "alled": 3735,
      "Ġexer": 3736,
      "Ġsafe": 3737,
      "ĠHere": 3738,
      "ĠHill": 3739,
      "ĠHave": 3740,
      "Ġstairs": 3741,
      "ular": 3742,
      "mention": 3743,
      "antry": 3744,
      "Ġlib": 3745,
      "Ġliber": 3746,
      "ilities": 3747,
      "Ġunlike": 3748,
      "Ġunjust": 3749,
      "ĠĠĠĠĠĠĠĠĠĠĠĠĠĠĠĠĠĠĠĠĠĠĠĠ": 3750,
      "Ġshown": 3751,
      "Ġshowed": 3752,
      "Ġdisagreeable": 3753,
      "ĠThese": 3754,
      "ĠAre": 3755,
      "Ġalong": 3756,
      "Ġalarmed": 3757,
      "osen": 3758,
      "osop": 3759,
      "osition": 3760,
      "Ġabsur": 3761,
      "Ġabode": 3762,
      "Ġseat": 3763,
      "Ġproc": 3764,
      "Ġprepar": 3765,
      "Ġfema": 3766,
      "Ġparting": 3767,
      "Ġquitting": 3768,
      "conc": 3769,
      "gement": 3770,
      "Ġattached": 3771,
      "Ġattribut": 3772,
      "Ġapplication": 3773,
      "ruple": 3774,
      "persu": 3775,
      "ondered": 3776,
      "umber": 3777,
      "Ġoffended": 3778,
      "Ġgoverness": 3779,
      "ĠPoor": 3780,
      "Ġentering": 3781,
      "Ġacqu": 3782,
      "Ġfail": 3783,
      "comed": 3784,
      "Ġremaining": 3785,
      "Ġovercome": 3786,
      "Ġcertainty": 3787,
      "meet": 3788,
      "Ġrooms": 3789,
      "bted": 3790,
      "Ġgrad": 3791,
      "fortable": 3792,
      "Ġreturning": 3793,
      "ĠGardiners": 3794,
      "Ġoccasions": 3795,
      "Ġadmit": 3796,
      "Ġadmitted": 3797,
      "Ġdistingu": 3798,
      "Ġvisitor": 3799,
      "Ġnorth": 3800,
      "Ġconfusion": 3801,
      "Ġincome": 3802,
      "Ġincred": 3803,
      "Ġthrown": 3804,
      "Ġstayed": 3805,
      "party": 3806,
      "Yours": 3807,
      "Ġcousins": 3808,
      "Ġminute": 3809,
      "pleased": 3810,
      "Ġchanged": 3811,
      "Ġstead": 3812,
      "Ġcommand": 3813,
      "Ġhumble": 3814,
      "Ġinfam": 3815,
      "Ġadvise": 3816,
      "Ġdifferently": 3817,
      "Ġusually": 3818,
      "Ġpossibly": 3819,
      "Ġsuffered": 3820,
      "urious": 3821,
      "Ġwaiting": 3822,
      "feeling": 3823,
      "Ġinquiry": 3824,
      "Ġinsist": 3825,
      "Ġeagerness": 3826,
      "ĠJenkinson": 3827,
      "Ġselfish": 3828,
      "Ġproperly": 3829,
      "Ġintroduction": 3830,
      "Ġrepeatedly": 3831,
      "Ġcordi": 3832,
      "Ġrecommended": 3833,
      "world": 3834,
      "Ġhorr": 3835,
      "Ġhorse": 3836,
      "Ġhaste": 3837,
      "Ġfinished": 3838,
      "Ġshocked": 3839,
      "ĠNothing": 3840,
      "Nothing": 3841,
      "Ġlaughing": 3842,
      "Ġconclusion": 3843,
      "Ġconcluded": 3844,
      "Ġencouraged": 3845,
      "Ġelegance": 3846,
      "Ġvexed": 3847,
      "Ġutter": 3848,
      "Ġriver": 3849,
      "Ġwarmth": 3850,
      "Ġdreadful": 3851,
      "Ġemployed": 3852,
      "Ġinterruption": 3853,
      "better": 3854,
      "compli": 3855,
      "Ġincreasing": 3856,
      "Ġevils": 3857,
      "Ġdifficulty": 3858,
      "onsense": 3859,
      "Ġdeny": 3860,
      "Ġrunning": 3861,
      "Ġextravag": 3862,
      "Ġquietly": 3863,
      "Ġdeserve": 3864,
      "Ġcontrary": 3865,
      "Ġreflections": 3866,
      "Ġwitness": 3867,
      "Ġplaced": 3868,
      "Ġsincerely": 3869,
      "ergyman": 3870,
      "connected": 3871,
      "Ġexertion": 3872,
      "Ġprepared": 3873,
      "believed": 3874,
      "Ġaccording": 3875,
      "Ġtriumph": 3876,
      "continued": 3877,
      "Ġwatching": 3878,
      "Ġfurniture": 3879,
      "anguage": 3880,
      "Ġassembly": 3881,
      "oluntarily": 3882,
      "spirits": 3883,
      "approbation": 3884,
      "circumstances": 3885,
      "natural": 3886,
      "Ġtotally": 3887,
      "chief": 3888,
      "Ġvarious": 3889,
      "consequence": 3890,
      "Ġpeculiar": 3891,
      "hilosop": 3892,
      "Ġdwelling": 3893,
      "Ġtruly": 3894,
      "Ġinsufficient": 3895,
      "Ġanticip": 3896,
      "Ġsacrifice": 3897,
      "tÃªte": 3898,
      "Ġcircle": 3899,
      "Ġceremon": 3900,
      "Ġcoffee": 3901,
      "Ġabsurd": 3902,
      ".,": 3903,
      "Be": 3904,
      "Did": 3905,
      "Fitzwilliam": 3906,
      "Gardiner": 3907,
      "London": 3908,
      "While": 3909,
      "av": 3910,
      "aunt": 3911,
      "aff": 3912,
      "aired": 3913,
      "bled": 3914,
      "car": 3915,
      "cul": 3916,
      "char": 3917,
      "dra": 3918,
      "ease": 3919,
      "fac": 3920,
      "frequ": 3921,
      "gence": 3922,
      "hour": 3923,
      "ilf": 3924,
      "lance": 3925,
      "liness": 3926,
      "looked": 3927,
      "leness": 3928,
      "mes": 3929,
      "mist": 3930,
      "master": 3931,
      "ole": 3932,
      "oot": 3933,
      "oval": 3934,
      "possible": 3935,
      "piece": 3936,
      "rain": 3937,
      "rained": 3938,
      "sing": 3939,
      "ĠYes": 3940,
      "Ġtal": 3941,
      "Ġtour": 3942,
      "Ġtender": 3943,
      "inc": 3944,
      "incl": 3945,
      "Ġwise": 3946,
      "Ġwound": 3947,
      "Ġsle": 3948,
      "Ġsal": 3949,
      "Ġsad": 3950,
      "Ġsimp": 3951,
      "reen": 3952,
      "represent": 3953,
      "Ġodd": 3954,
      "eration": 3955,
      "ounce": 3956,
      "enced": 3957,
      "ones": 3958,
      "Ġban": 3959,
      "Ġbore": 3960,
      "itions": 3961,
      "Ġmoved": 3962,
      "Ġmode": 3963,
      "Ġcas": 3964,
      "Ġcards": 3965,
      "Ġfun": 3966,
      "Ġfret": 3967,
      "Ġfirm": 3968,
      "Ġfrightened": 3969,
      "Ġnarrow": 3970,
      "Ġder": 3971,
      "Ġdrink": 3972,
      "Ġdomest": 3973,
      "orough": 3974,
      "Ġhundred": 3975,
      "atch": 3976,
      "anci": 3977,
      "ancing": 3978,
      "Ġpow": 3979,
      "Ġpau": 3980,
      "Ġpaper": 3981,
      "oted": 3982,
      "Ġhero": 3983,
      "Ġhers": 3984,
      "vey": 3985,
      "imil": 3986,
      "immedi": 3987,
      "Ġreach": 3988,
      "Ġresemb": 3989,
      "Ġresist": 3990,
      "utation": 3991,
      "owards": 3992,
      "Ġgame": 3993,
      "ctory": 3994,
      "iding": 3995,
      "ides": 3996,
      "idently": 3997,
      "Ġlucky": 3998,
      "alities": 3999,
      "rill": 4000,
      "rief": 4001,
      "Ġsuit": 4002,
      "ury": 4003,
      "ĠLod": 4004,
      "Ġalluded": 4005,
      "Ġmeas": 4006,
      "Ġdead": 4007,
      "ends": 4008,
      "Ġexcl": 4009,
      "Ġexec": 4010,
      "ĠCould": 4011,
      "Ġlest": 4012,
      "ĠHouse": 4013,
      "Ġnovel": 4014,
      "Ġstreet": 4015,
      "ĠWho": 4016,
      "ĠWednesday": 4017,
      "ulous": 4018,
      "esty": 4019,
      "Ġlikes": 4020,
      "ĠSo": 4021,
      "Ġwilling": 4022,
      "oused": 4023,
      "forg": 4024,
      "ilit": 4025,
      "Ġunknown": 4026,
      "Ġunpleasant": 4027,
      "Ġunfortunate": 4028,
      "Ġshop": 4029,
      "Ġdiscourse": 4030,
      "Ġaltogether": 4031,
      "Ġseek": 4032,
      "Ġseeking": 4033,
      "Ġmoreover": 4034,
      "Ġabhor": 4035,
      "Ġsex": 4036,
      "Ġsevere": 4037,
      "Ġprove": 4038,
      "Ġproof": 4039,
      "hib": 4040,
      "Ġenv": 4041,
      "Ġexpense": 4042,
      "dem": 4043,
      "Ġspot": 4044,
      "Ġspring": 4045,
      "Ġqualities": 4046,
      "Ġru": 4047,
      "Ġrate": 4048,
      "Ġrising": 4049,
      "acity": 4050,
      "arer": 4051,
      "Ġsomewhat": 4052,
      "Ġattack": 4053,
      "Ġhappiest": 4054,
      "bear": 4055,
      "because": 4056,
      "perfect": 4057,
      "perhaps": 4058,
      "ĠGracechurch": 4059,
      "Ġimpression": 4060,
      "Ġimportant": 4061,
      "opin": 4062,
      "cili": 4063,
      "assure": 4064,
      "intro": 4065,
      "hardly": 4066,
      "harles": 4067,
      "ĠPr": 4068,
      "ĠPray": 4069,
      "compl": 4070,
      "ĠNor": 4071,
      "ĠNow": 4072,
      "Ġcontained": 4073,
      "Ġcontents": 4074,
      "izing": 4075,
      "Ġarise": 4076,
      "Ġprotested": 4077,
      "Ġsupply": 4078,
      "Ġbegged": 4079,
      "Ġgrand": 4080,
      "solved": 4081,
      "ension": 4082,
      "ensible": 4083,
      "ensibility": 4084,
      "Ġindebted": 4085,
      "Ġgentle": 4086,
      "Ġmatrim": 4087,
      "Ġobjects": 4088,
      "Ġwanting": 4089,
      "Ġinstance": 4090,
      "Ġhands": 4091,
      "Ġchosen": 4092,
      "Ġinvol": 4093,
      "disagreeable": 4094,
      "Ġopinions": 4095,
      "Ġcarried": 4096,
      "olded": 4097,
      "Ġpeace": 4098,
      "Ġreflection": 4099,
      "Ġcontinue": 4100,
      "Ġbetray": 4101,
      "Ġgetting": 4102,
      "importance": 4103,
      "Ġresolving": 4104,
      "Ġthrow": 4105,
      "Ġglance": 4106,
      "Ġsettle": 4107,
      "Ġfavourable": 4108,
      "Ġblind": 4109,
      "ĠEng": 4110,
      "Ġactual": 4111,
      "Ġinquired": 4112,
      "themselves": 4113,
      "Ġforgive": 4114,
      "ĠĠĠĠĠĠĠĠĠĠĠĠĠĠĠĠĠĠĠĠĠĠĠĠĠĠĠĠĠĠĠĠĠĠĠĠĠĠĠĠĠĠĠ": 4115,
      "engaged": 4116,
      "express": 4117,
      "Ġgentlemanlike": 4118,
      "Ġguess": 4119,
      "Ġguarded": 4120,
      "Ġformerly": 4121,
      "Ġinfin": 4122,
      "Ġdoors": 4123,
      "Ġpretend": 4124,
      "Ġrecollections": 4125,
      "everybody": 4126,
      "Ġmistress": 4127,
      "Ġofficer": 4128,
      "Ġdrawn": 4129,
      "Ġpossession": 4130,
      "Ġsmiles": 4131,
      "easing": 4132,
      "Ġopenly": 4133,
      "Ġmatters": 4134,
      "Ġplaying": 4135,
      "Ġwaited": 4136,
      "humoured": 4137,
      "Ġstrongly": 4138,
      "Ġapproach": 4139,
      "Ġendeavours": 4140,
      "Ġparlour": 4141,
      "seeing": 4142,
      "Ġlarger": 4143,
      "Ġexplain": 4144,
      "Ġrose": 4145,
      "Ġcorrespond": 4146,
      "Ġordered": 4147,
      "Ġorders": 4148,
      "Ġremarks": 4149,
      "Ġremarkable": 4150,
      "Ġcomplexion": 4151,
      "Ġmotives": 4152,
      "Ġhorses": 4153,
      "Ġhastily": 4154,
      "Ġprofession": 4155,
      "offic": 4156,
      "Ġdirections": 4157,
      "Ġwatched": 4158,
      "Ġfinally": 4159,
      "Ġschemes": 4160,
      "regard": 4161,
      "Ġcompanions": 4162,
      "Ġtrusted": 4163,
      "Ġimprobable": 4164,
      "Ġwarmly": 4165,
      "Ġundoubtedly": 4166,
      "Ġentreaty": 4167,
      "Ġdescribe": 4168,
      "Ġsixteen": 4169,
      "Ġcongratulate": 4170,
      "Ġdelicate": 4171,
      "Ġdesirous": 4172,
      "Ġconcealed": 4173,
      "alif": 4174,
      "ritical": 4175,
      "Ġstrugg": 4176,
      "Ġentertained": 4177,
      "Ġapology": 4178,
      "Ġviolent": 4179,
      "Ġpunct": 4180,
      "Ġventured": 4181,
      "Ġproperty": 4182,
      "Ġembarrassed": 4183,
      "chance": 4184,
      "Ġsyllable": 4185,
      "Ġsuspected": 4186,
      "Ġuneasy": 4187,
      "Ġuneasiness": 4188,
      "Ġreproach": 4189,
      "favourable": 4190,
      "Ġfamilies": 4191,
      "glad": 4192,
      "shall": 4193,
      "Ġrenewal": 4194,
      "Ġprovided": 4195,
      "Ġimpertinence": 4196,
      "countenance": 4197,
      "minutes": 4198,
      "Ġexclaimed": 4199,
      "Ġrepresented": 4200,
      "Ġaccompanied": 4201,
      "surprise": 4202,
      "Ġsource": 4203,
      "Ġcalm": 4204,
      "Ġheightened": 4205,
      "ĠChrist": 4206,
      "Ġmisfortune": 4207,
      "Ġuncommonly": 4208,
      "Ġindignation": 4209,
      "determ": 4210,
      "Ġsolicitude": 4211,
      "behaviour": 4212,
      "equal": 4213,
      "Ġidle": 4214,
      "inquir": 4215,
      "Ġfigure": 4216,
      "Ġparents": 4217,
      "ĠScotland": 4218,
      "Ġjealous": 4219,
      "appearance": 4220,
      "Ġexplanation": 4221,
      "Certainly": 4222,
      "Ġeligible": 4223,
      "Ġlodg": 4224,
      "Ġmemory": 4225,
      "Ġliberty": 4226,
      "ancied": 4227,
      "Ġresemblance": 4228,
      "ĠLodge": 4229,
      "),": 4230,
      "**": 4231,
      ",âĢĻ": 4232,
      ";âĢĿ": 4233,
      "AR": 4234,
      "Ay": 4235,
      "By": 4236,
      "Con": 4237,
      "Can": 4238,
      "Had": 4239,
      "IX": 4240,
      "Of": 4241,
      "Pray": 4242,
      "Th": 4243,
      "VIII": 4244,
      "Will": 4245,
      "_;": 4246,
      "action": 4247,
      "bl": 4248,
      "bo": 4249,
      "bre": 4250,
      "bly": 4251,
      "bout": 4252,
      "book": 4253,
      "both": 4254,
      "cor": 4255,
      "cast": 4256,
      "cended": 4257,
      "case": 4258,
      "curiosity": 4259,
      "different": 4260,
      "ep": 4261,
      "ev": 4262,
      "ew": 4263,
      "far": 4264,
      "further": 4265,
      "gall": 4266,
      "home": 4267,
      "honour": 4268,
      "ia": 4269,
      "iance": 4270,
      "ius": 4271,
      "mis": 4272,
      "mit": 4273,
      "mine": 4274,
      "making": 4275,
      "nor": 4276,
      "oh": 4277,
      "oke": 4278,
      "prom": 4279,
      "pardon": 4280,
      "rat": 4281,
      "rity": 4282,
      "sus": 4283,
      "situation": 4284,
      "table": 4285,
      "town": 4286,
      "towards": 4287,
      "ug": 4288,
      "uff": 4289,
      "vity": 4290,
      "wa": 4291,
      "wish": 4292,
      "wonder": 4293,
      "wift": 4294,
      "held": 4295,
      "Ġtest": 4296,
      "Ġtakes": 4297,
      "Ġteasing": 4298,
      "Ġapart": 4299,
      "inv": 4300,
      "Ġwand": 4301,
      "Ġwide": 4302,
      "Ġsk": 4303,
      "Ġsly": 4304,
      "Ġsong": 4305,
      "Ġsink": 4306,
      "Ġsound": 4307,
      "res": 4308,
      "repe": 4309,
      "rease": 4310,
      "repro": 4311,
      "resolved": 4312,
      "hall": 4313,
      "half": 4314,
      "habit": 4315,
      "oup": 4316,
      "ouis": 4317,
      "outh": 4318,
      "isen": 4319,
      "isable": 4320,
      "Ġbed": 4321,
      "Ġboy": 4322,
      "itate": 4323,
      "Ġmi": 4324,
      "Ġmoving": 4325,
      "Ġmilit": 4326,
      "Ġcared": 4327,
      "Ġceased": 4328,
      "Ġheaven": 4329,
      "Ġfitted": 4330,
      "Ġfatig": 4331,
      "Ġfoot": 4332,
      "Ġfancied": 4333,
      "arch": 4334,
      "Ġnames": 4335,
      "Ġdress": 4336,
      "Ġdined": 4337,
      "Ġdressing": 4338,
      "oration": 4339,
      "atory": 4340,
      "anced": 4341,
      "Ġpri": 4342,
      "Ġpos": 4343,
      "Ġpap": 4344,
      "othe": 4345,
      "otest": 4346,
      "ompl": 4347,
      "etch": 4348,
      "stin": 4349,
      "lier": 4350,
      "lies": 4351,
      "liked": 4352,
      "ential": 4353,
      "verse": 4354,
      "imated": 4355,
      "utter": 4356,
      "Ġgate": 4357,
      "Ġgrew": 4358,
      "ctions": 4359,
      "Ġaspect": 4360,
      "idge": 4361,
      "Ġforce": 4362,
      "Ġlament": 4363,
      "Ġlanguage": 4364,
      "Ġthorough": 4365,
      "Ġones": 4366,
      "Ġhist": 4367,
      "ric": 4368,
      "riages": 4369,
      "illage": 4370,
      "Ġcond": 4371,
      "Ġconven": 4372,
      "Ġconvers": 4373,
      "road": 4374,
      "ĠLakes": 4375,
      "aming": 4376,
      "quite": 4377,
      "Ġdev": 4378,
      "Ġdeference": 4379,
      "allow": 4380,
      "ĠCan": 4381,
      "--âĢľ": 4382,
      "ĠDid": 4383,
      "Ġstudi": 4384,
      "Ġstupid": 4385,
      "ĠWhile": 4386,
      "Ġweather": 4387,
      "ulg": 4388,
      "hank": 4389,
      "ants": 4390,
      "antic": 4391,
      "unes": 4392,
      "uncom": 4393,
      "ĠSwift": 4394,
      "ouses": 4395,
      "Ġunt": 4396,
      "Ġunivers": 4397,
      "Ġunexpected": 4398,
      "enness": 4399,
      "Ġdisp": 4400,
      "Ġdisgu": 4401,
      "Ġperse": 4402,
      "Ġpervers": 4403,
      "Ġperceive": 4404,
      "Ġpermission": 4405,
      "Ġthanked": 4406,
      "Ġaltered": 4407,
      "Ġvac": 4408,
      "Ġabilities": 4409,
      "Ġsees": 4410,
      "Ġpropriety": 4411,
      "Ġpresence": 4412,
      "Ġenc": 4413,
      "Ġenumer": 4414,
      "Ġparts": 4415,
      "decl": 4416,
      "Ġsport": 4417,
      "Ġquality": 4418,
      "Ġeveryone": 4419,
      "Ġroused": 4420,
      "Ġworst": 4421,
      "Ġsomewhere": 4422,
      "super": 4423,
      "sume": 4424,
      "suming": 4425,
      "success": 4426,
      "sudden": 4427,
      "ngth": 4428,
      "Ġattending": 4429,
      "Ġmark": 4430,
      "beg": 4431,
      "Ġimprudence": 4432,
      "cience": 4433,
      "Ġentailed": 4434,
      "comes": 4435,
      "compre": 4436,
      "Ġintending": 4437,
      "Ġreminded": 4438,
      "Ġremoval": 4439,
      "Ġconscious": 4440,
      "Ġconsole": 4441,
      "racted": 4442,
      "racters": 4443,
      "Ġjustify": 4444,
      "Ġkindly": 4445,
      "licit": 4446,
      "Ġchair": 4447,
      "Ġcharacters": 4448,
      "ĠKing": 4449,
      "Ġhandsom": 4450,
      "Ġdistressing": 4451,
      "Ġrecovered": 4452,
      "Ġengross": 4453,
      "Ġengaging": 4454,
      "Ġfollows": 4455,
      "cerning": 4456,
      "anybody": 4457,
      "Ġservice": 4458,
      "disappoint": 4459,
      "Ġappearing": 4460,
      "Ġcarriages": 4461,
      "aped": 4462,
      "olding": 4463,
      "ĠOf": 4464,
      "Ġrefused": 4465,
      "Ġrefusing": 4466,
      "Ġrefusal": 4467,
      "Ġcontinually": 4468,
      "short": 4469,
      "mptom": 4470,
      "Ġincrease": 4471,
      "Ġbehaved": 4472,
      "formation": 4473,
      "Ġrespects": 4474,
      "prev": 4475,
      "rank": 4476,
      "Ġbestow": 4477,
      "Ġbestowed": 4478,
      "overing": 4479,
      "Ġmentioning": 4480,
      "Ġmiserable": 4481,
      "brought": 4482,
      "Ġextent": 4483,
      "Ġoccasional": 4484,
      "Ġclosed": 4485,
      "Ġactions": 4486,
      "Ġoblige": 4487,
      "Ġbeauties": 4488,
      "Ġevidently": 4489,
      "Ġcommission": 4490,
      "Ġcommendation": 4491,
      "Ġconcerns": 4492,
      "guarded": 4493,
      "Ġpersuasion": 4494,
      "Ġadvisable": 4495,
      "Ġballs": 4496,
      "does": 4497,
      "desp": 4498,
      "lerable": 4499,
      "Ġdiscovered": 4500,
      "Ġtables": 4501,
      "Ġflattered": 4502,
      "iority": 4503,
      "Ladyship": 4504,
      "interrupt": 4505,
      "Ġapproached": 4506,
      "Ġapprobation": 4507,
      "ĠOnly": 4508,
      "marked": 4509,
      "sisters": 4510,
      "Ġintroduced": 4511,
      "Ġcorps": 4512,
      "Ġuseless": 4513,
      "----âĢĿ": 4514,
      "work": 4515,
      "Ġhurt": 4516,
      "ailing": 4517,
      "Ġeffects": 4518,
      "Ġchooses": 4519,
      "sometimes": 4520,
      "Ġwindows": 4521,
      "Ġconclude": 4522,
      "Ġencouragement": 4523,
      "Ġprinciple": 4524,
      "Ġpurposely": 4525,
      "Ġimproved": 4526,
      "affected": 4527,
      "longer": 4528,
      "Ġmortifying": 4529,
      "Ġmortification": 4530,
      "Ġdreaded": 4531,
      "thinking": 4532,
      "Ġdescription": 4533,
      "Ġaddresses": 4534,
      "ĠĠĠĠĠĠĠĠĠĠĠĠĠĠĠĠĠĠĠĠĠĠĠĠĠĠĠĠĠĠĠĠĠĠĠĠĠĠĠĠĠĠĠĠĠĠĠĠĠĠĠĠĠĠĠĠ": 4535,
      "Ġemployment": 4536,
      "Ġinterrupted": 4537,
      "Ġrejoice": 4538,
      "Ġvaluable": 4539,
      "account": 4540,
      "accompl": 4541,
      "remember": 4542,
      "Ġimpatient": 4543,
      "Ġtrying": 4544,
      "Ġdeserved": 4545,
      "Ġtempted": 4546,
      "Ġtemptation": 4547,
      "Ġuncomfortable": 4548,
      "Ġseparation": 4549,
      "Ġseparate": 4550,
      "Ġplainly": 4551,
      "Ġentertainment": 4552,
      "ĠEverything": 4553,
      "Ġmerit": 4554,
      "Ġpursue": 4555,
      "Ġpursuit": 4556,
      "satisfaction": 4557,
      "Ġtreated": 4558,
      "Ġafforded": 4559,
      "Ġcompletely": 4560,
      "going": 4561,
      "Ġresigned": 4562,
      "Ġperformance": 4563,
      "interested": 4564,
      "means": 4565,
      "instantly": 4566,
      "Ġfoolish": 4567,
      "Ġimpertinent": 4568,
      "Ġindulgence": 4569,
      "Ġpatroness": 4570,
      "Ġowed": 4571,
      "Ġfifty": 4572,
      "Ġthird": 4573,
      "Ġcondescension": 4574,
      "Ġalteration": 4575,
      "particularly": 4576,
      "speak": 4577,
      "Ġerror": 4578,
      "Ġwoods": 4579,
      "Ġarrangement": 4580,
      "younger": 4581,
      "Ġestablished": 4582,
      "Ġbroken": 4583,
      "Ġgallery": 4584,
      "Ġvariety": 4585,
      "Ġblushed": 4586,
      "Ġobligation": 4587,
      "Ġraptures": 4588,
      "Ġinconvenience": 4589,
      "settled": 4590,
      "Ġbitter": 4591,
      "Ġgenius": 4592,
      "Ġstrength": 4593,
      "Ġstopped": 4594,
      "Ġdisdain": 4595,
      "Ġspeedily": 4596,
      "Ġdistinction": 4597,
      "afraid": 4598,
      "Ġcauses": 4599,
      "Ġurged": 4600,
      "Ġexercise": 4601,
      "Ġfemale": 4602,
      "Ġgradually": 4603,
      "compliment": 4604,
      "Ġcases": 4605,
      "Ġdomestic": 4606,
      "Ġpowers": 4607,
      "immediately": 4608,
      "Ġabhorrence": 4609,
      "bearance": 4610,
      "opinion": 4611,
      "Ġmatrimony": 4612,
      "ĠChristmas": 4613,
      "ouisa": 4614,
      "Ġpapa": 4615,
      "Ġperverseness": 4616,
      "Ah": 4617,
      "Dear": 4618,
      "Eng": 4619,
      "GE": 4620,
      "Geor": 4621,
      "May": 4622,
      "Now": 4623,
      "Pr": 4624,
      "RE": 4625,
      "Such": 4626,
      "VII": 4627,
      "aily": 4628,
      "avoid": 4629,
      "aisance": 4630,
      "bid": 4631,
      "ball": 4632,
      "bably": 4633,
      "back": 4634,
      "cen": 4635,
      "cence": 4636,
      "creat": 4637,
      "cuse": 4638,
      "collect": 4639,
      "called": 4640,
      "critical": 4641,
      "ddis": 4642,
      "eg": 4643,
      "eent": 4644,
      "fl": 4645,
      "five": 4646,
      "ften": 4647,
      "gone": 4648,
      "gress": 4649,
      "gave": 4650,
      "grace": 4651,
      "hur": 4652,
      "iver": 4653,
      "iqu": 4654,
      "ially": 4655,
      "iving": 4656,
      "iently": 4657,
      "keep": 4658,
      "lar": 4659,
      "lend": 4660,
      "love": 4661,
      "lanch": 4662,
      "met": 4663,
      "mber": 4664,
      "maid": 4665,
      "mitted": 4666,
      "missed": 4667,
      "net": 4668,
      "oly": 4669,
      "oqu": 4670,
      "ofor": 4671,
      "pet": 4672,
      "power": 4673,
      "rp": 4674,
      "rs": 4675,
      "ris": 4676,
      "rather": 4677,
      "round": 4678,
      "raint": 4679,
      "sa": 4680,
      "sper": 4681,
      "taken": 4682,
      "tran": 4683,
      "wife": 4684,
      "Ġ6": 4685,
      "Ġing": 4686,
      "Ġess": 4687,
      "head": 4688,
      "heme": 4689,
      "Ġtreas": 4690,
      "Ġteach": 4691,
      "Ġaro": 4692,
      "information": 4693,
      "Ġwilf": 4694,
      "Ġsl": 4695,
      "Ġsought": 4696,
      "Ġsitu": 4697,
      "Ġslow": 4698,
      "Ġsimil": 4699,
      "Ġsides": 4700,
      "really": 4701,
      "reserved": 4702,
      "reserve": 4703,
      "hast": 4704,
      "encour": 4705,
      "isk": 4706,
      "isible": 4707,
      "Ġbreat": 4708,
      "Ġbare": 4709,
      "Ġbright": 4710,
      "Ġbirth": 4711,
      "iter": 4712,
      "ites": 4713,
      "itled": 4714,
      "itating": 4715,
      "Ġmeth": 4716,
      "Ġmess": 4717,
      "Ġmild": 4718,
      "Ġmouth": 4719,
      "edom": 4720,
      "Ġcher": 4721,
      "Ġcard": 4722,
      "Ġcapt": 4723,
      "Ġcounter": 4724,
      "Ġheld": 4725,
      "Ġfore": 4726,
      "Ġfare": 4727,
      "Ġfaint": 4728,
      "Ġfiner": 4729,
      "Ġfix": 4730,
      "Ġfully": 4731,
      "Ġfishing": 4732,
      "Ġfront": 4733,
      "lling": 4734,
      "asked": 4735,
      "assemb": 4736,
      "aration": 4737,
      "Ġnumber": 4738,
      "Ġnonsense": 4739,
      "Ġdwe": 4740,
      "Ġhill": 4741,
      "Ġinsol": 4742,
      "atched": 4743,
      "atively": 4744,
      "Ġhab": 4745,
      "Ġhat": 4746,
      "Ġpen": 4747,
      "Ġpal": 4748,
      "Ġport": 4749,
      "Ġpian": 4750,
      "otion": 4751,
      "esy": 4752,
      "especially": 4753,
      "stru": 4754,
      "lihood": 4755,
      "library": 4756,
      "velty": 4757,
      "Ġecon": 4758,
      "Ġeff": 4759,
      "Ġresid": 4760,
      "Ġreserved": 4761,
      "Ġreception": 4762,
      "utual": 4763,
      "idd": 4764,
      "Ġforth": 4765,
      "Ġlot": 4766,
      "Ġlay": 4767,
      "Ġlower": 4768,
      "Ġlaw": 4769,
      "Ġlawn": 4770,
      "Ġlater": 4771,
      "Ġthin": 4772,
      "iring": 4773,
      "Ġwithdrew": 4774,
      "Ġwhite": 4775,
      "Ġwhist": 4776,
      "advantages": 4777,
      "rive": 4778,
      "ĠBe": 4779,
      "illed": 4780,
      "illity": 4781,
      "Ġsoften": 4782,
      "Ġcondem": 4783,
      "urs": 4784,
      "ĠLouisa": 4785,
      "ustom": 4786,
      "Ġallowing": 4787,
      "Ġallusion": 4788,
      "lfare": 4789,
      "que": 4790,
      "quillity": 4791,
      "icing": 4792,
      "ices": 4793,
      "ically": 4794,
      "icule": 4795,
      "icism": 4796,
      "Ġdeliber": 4797,
      "iform": 4798,
      "Ġnearest": 4799,
      "Ġnearer": 4800,
      "agger": 4801,
      "ague": 4802,
      "Ġexhib": 4803,
      "ĠCO": 4804,
      "ĠCharles": 4805,
      "ĠâĢľ_": 4806,
      "Ġnovelty": 4807,
      "Ġstro": 4808,
      "Ġstared": 4809,
      "Ġamid": 4810,
      "Ġamused": 4811,
      "Ġamends": 4812,
      "Ġweight": 4813,
      "estly": 4814,
      "estib": 4815,
      "Ġlie": 4816,
      "Ġlift": 4817,
      "unately": 4818,
      "uncle": 4819,
      "raordinary": 4820,
      "forward": 4821,
      "Ġunreasonable": 4822,
      "Ġuncivil": 4823,
      "Ġunworth": 4824,
      "told": 4825,
      "Ġdish": 4826,
      "Ġdiscompos": 4827,
      "ĠThen": 4828,
      "Ġpersist": 4829,
      "ĠAddis": 4830,
      "Ġadvantages": 4831,
      "Ġvoluntarily": 4832,
      "Ġvillage": 4833,
      "Ġvestib": 4834,
      "aston": 4835,
      "Ġabrupt": 4836,
      "Ġseason": 4837,
      "Ġselect": 4838,
      "erted": 4839,
      "Ġpretens": 4840,
      "Ġfeatures": 4841,
      "Ġenergy": 4842,
      "ishments": 4843,
      "Ġexper": 4844,
      "Ġexpose": 4845,
      "Ġexposing": 4846,
      "Ġspare": 4847,
      "hamber": 4848,
      "conce": 4849,
      "conven": 4850,
      "acency": 4851,
      "acrity": 4852,
      "Ġcomposed": 4853,
      "Ġsomebody": 4854,
      "Ġhappily": 4855,
      "ĠHeaven": 4856,
      "Ġsharp": 4857,
      "perate": 4858,
      "ĠGood": 4859,
      "spoke": 4860,
      "Ġimprudent": 4861,
      "umb": 4862,
      "Ġoffence": 4863,
      "Ġoffice": 4864,
      "assist": 4865,
      "Ġfriendly": 4866,
      "intended": 4867,
      "ovember": 4868,
      "ĠPre": 4869,
      "ĠPark": 4870,
      "Ġacross": 4871,
      "Ġacutely": 4872,
      "Ġfailed": 4873,
      "clock": 4874,
      "comfort": 4875,
      "ĠNever": 4876,
      "Ġdesired": 4877,
      "Ġadding": 4878,
      "iles": 4879,
      "Ġconscience": 4880,
      "Ġcontain": 4881,
      "Ġcontribut": 4882,
      "bery": 4883,
      "Ġarch": 4884,
      "Ġpronounced": 4885,
      "Ġscruple": 4886,
      "Ġhopeless": 4887,
      "turned": 4888,
      "aints": 4889,
      "Ġgrow": 4890,
      "Ġgrounds": 4891,
      "Ġways": 4892,
      "Ġexpecting": 4893,
      "Ġexpectations": 4894,
      "society": 4895,
      "pride": 4896,
      "pronounced": 4897,
      "ignific": 4898,
      "Ġindependence": 4899,
      "uding": 4900,
      "viol": 4901,
      "Ġmoral": 4902,
      "Ġmorrow": 4903,
      "Ġpleasures": 4904,
      "Ġrelating": 4905,
      "Ġexpressing": 4906,
      "retion": 4907,
      "Ġdistur": 4908,
      "Ġrecent": 4909,
      "Ġvisiting": 4910,
      "xture": 4911,
      "Ġpresentation": 4912,
      "Ġourselves": 4913,
      "Ġcounty": 4914,
      "Ġpersonal": 4915,
      "Ġappears": 4916,
      "Ġreasons": 4917,
      "Ġconfined": 4918,
      "Ġconfirm": 4919,
      "Ġtelling": 4920,
      "Ġcarry": 4921,
      "Ġeloqu": 4922,
      "Ġcharacterist": 4923,
      "ĠOur": 4924,
      "Ġrespectability": 4925,
      "Ġpointing": 4926,
      "impossible": 4927,
      "imprudent": 4928,
      "Ġglo": 4929,
      "attachment": 4930,
      "yourself": 4931,
      "Ġopposed": 4932,
      "Ġblack": 4933,
      "Ġclergyman": 4934,
      "Ġdoubted": 4935,
      "Ġacted": 4936,
      "Ġobliging": 4937,
      "Ġpains": 4938,
      "Ġletting": 4939,
      "reading": 4940,
      "Ġsteps": 4941,
      "Ġsteward": 4942,
      "Ġfreedom": 4943,
      "expressed": 4944,
      "expression": 4945,
      "Ġhonourable": 4946,
      "Ġhuman": 4947,
      "Ġguest": 4948,
      "Ġinterested": 4949,
      "Ġgratifying": 4950,
      "Ġinfer": 4951,
      "Ġadvanced": 4952,
      "Ġnecessarily": 4953,
      "Ġputting": 4954,
      "Ġimagined": 4955,
      "Ġimaginary": 4956,
      "Ġfearful": 4957,
      "Ġaffairs": 4958,
      "deser": 4959,
      "Ġwisest": 4960,
      "Ġdiscover": 4961,
      "Ġdiscovery": 4962,
      "Ġdiscretion": 4963,
      "Ġsecured": 4964,
      "upon": 4965,
      "Ġsufficient": 4966,
      "Ġdeclined": 4967,
      "ogue": 4968,
      "Ġlovers": 4969,
      "ciously": 4970,
      "Ġdesigned": 4971,
      "ĠJames": 4972,
      "ĠJones": 4973,
      "Ġraised": 4974,
      "Ġcheck": 4975,
      "Ġchecked": 4976,
      "Ġstronger": 4977,
      "Ġendeavouring": 4978,
      "marry": 4979,
      "married": 4980,
      "Ġconceited": 4981,
      "Ġdefer": 4982,
      "Ġkeeping": 4983,
      "Ġsatisfactory": 4984,
      "Ġcapital": 4985,
      "Ġintelligent": 4986,
      "Ġuseful": 4987,
      "Ġstrang": 4988,
      "Ġcoat": 4989,
      "Ġacknowled": 4990,
      "Ġacknowledge": 4991,
      "ĠThose": 4992,
      "Ġhasty": 4993,
      "Ġfinish": 4994,
      "Ġevents": 4995,
      "Ġproposed": 4996,
      "thank": 4997,
      "regret": 4998,
      "Ġpolite": 4999
    },
    "merges": [
      [
        "h",
        "e"
      ],
      [
        "Ġ",
        "t"
      ],
      [
        "Ġ",
        "a"
      ],
      [
        "č",
        "Ċ"
      ],
      [
        "i",
        "n"
      ],
      [
        "Ġ",
        "w"
      ],
      [
        "Ġ",
        "s"
      ],
      [
        "r",
        "e"
      ],
      [
        "Ġ",
        "o"
      ],
      [
        "h",
        "a"
      ],
      [
        "e",
        "r"
      ],
      [
        "o",
        "u"
      ],
      [
        "Ġt",
        "he"
      ],
      [
        "e",
        "n"
      ],
      [
        "o",
        "n"
      ],
      [
        "i",
        "s"
      ],
      [
        "Ġ",
        "b"
      ],
      [
        "i",
        "t"
      ],
      [
        "Ġ",
        "m"
      ],
      [
        "e",
        "d"
      ],
      [
        "â",
        "Ģ"
      ],
      [
        "Ġt",
        "o"
      ],
      [
        "n",
        "d"
      ],
      [
        "Ġ",
        "Ġ"
      ],
      [
        "in",
        "g"
      ],
      [
        "Ġo",
        "f"
      ],
      [
        "Ġ",
        "c"
      ],
      [
        "Ġ",
        "he"
      ],
      [
        "Ġ",
        "f"
      ],
      [
        "l",
        "l"
      ],
      [
        "Ġa",
        "nd"
      ],
      [
        "a",
        "s"
      ],
      [
        "a",
        "r"
      ],
      [
        "Ġ",
        "n"
      ],
      [
        "l",
        "e"
      ],
      [
        "Ġ",
        "d"
      ],
      [
        "o",
        "r"
      ],
      [
        "Ġ",
        "h"
      ],
      [
        "Ġ",
        "in"
      ],
      [
        "Ġb",
        "e"
      ],
      [
        "a",
        "t"
      ],
      [
        "a",
        "n"
      ],
      [
        "Ġ",
        "ha"
      ],
      [
        "Ġ",
        "p"
      ],
      [
        "o",
        "t"
      ],
      [
        "e",
        "s"
      ],
      [
        "o",
        "m"
      ],
      [
        "Ġhe",
        "r"
      ],
      [
        "ha",
        "t"
      ],
      [
        "Ġ",
        "I"
      ],
      [
        "i",
        "on"
      ],
      [
        "l",
        "y"
      ],
      [
        "ĠĠ",
        "ĠĠ"
      ],
      [
        "e",
        "t"
      ],
      [
        "s",
        "t"
      ],
      [
        "l",
        "i"
      ],
      [
        "âĢ",
        "ľ"
      ],
      [
        "âĢ",
        "Ŀ"
      ],
      [
        "v",
        "e"
      ],
      [
        "Ġ",
        "y"
      ],
      [
        "en",
        "t"
      ],
      [
        "c",
        "e"
      ],
      [
        "Ġ",
        "e"
      ],
      [
        "Ġw",
        "as"
      ],
      [
        "v",
        "er"
      ],
      [
        "l",
        "d"
      ],
      [
        "i",
        "m"
      ],
      [
        "Ġy",
        "ou"
      ],
      [
        "s",
        "e"
      ],
      [
        "Ġ",
        "re"
      ],
      [
        "c",
        "h"
      ],
      [
        "Ġn",
        "ot"
      ],
      [
        "u",
        "t"
      ],
      [
        "g",
        "h"
      ],
      [
        "o",
        "w"
      ],
      [
        "Ġ",
        "g"
      ],
      [
        "he",
        "r"
      ],
      [
        "Ġ",
        "M"
      ],
      [
        "Ġt",
        "hat"
      ],
      [
        "Ġ",
        "it"
      ],
      [
        "c",
        "t"
      ],
      [
        "Ġa",
        "s"
      ],
      [
        "i",
        "d"
      ],
      [
        "it",
        "h"
      ],
      [
        "Ġs",
        "he"
      ],
      [
        "a",
        "b"
      ],
      [
        "ou",
        "ld"
      ],
      [
        "Ġf",
        "or"
      ],
      [
        "Ġ",
        "l"
      ],
      [
        "Ġt",
        "h"
      ],
      [
        "a",
        "y"
      ],
      [
        "t",
        "er"
      ],
      [
        "i",
        "r"
      ],
      [
        "Ġw",
        "ith"
      ],
      [
        "Ġo",
        "n"
      ],
      [
        "Ġh",
        "is"
      ],
      [
        "Ġw",
        "h"
      ],
      [
        "Ġha",
        "d"
      ],
      [
        "a",
        "l"
      ],
      [
        "e",
        "re"
      ],
      [
        "a",
        "d"
      ],
      [
        "Ġa",
        "n"
      ],
      [
        "ĠM",
        "r"
      ],
      [
        "r",
        "i"
      ],
      [
        "Ġa",
        "t"
      ],
      [
        ".",
        "âĢĿ"
      ],
      [
        "Ġs",
        "u"
      ],
      [
        "ĠĠĠĠ",
        "ĠĠĠĠ"
      ],
      [
        "Ġ",
        "B"
      ],
      [
        "Ġ",
        "u"
      ],
      [
        "i",
        "ll"
      ],
      [
        "Ġ",
        "is"
      ],
      [
        "at",
        "ion"
      ],
      [
        "gh",
        "t"
      ],
      [
        "Ġs",
        "o"
      ],
      [
        "ou",
        "r"
      ],
      [
        "e",
        "ct"
      ],
      [
        "Ġha",
        "ve"
      ],
      [
        "Ġh",
        "im"
      ],
      [
        "ver",
        "y"
      ],
      [
        "Ġc",
        "on"
      ],
      [
        "a",
        "in"
      ],
      [
        "r",
        "o"
      ],
      [
        "âĢ",
        "Ļ"
      ],
      [
        "et",
        "h"
      ],
      [
        "p",
        "p"
      ],
      [
        "u",
        "r"
      ],
      [
        "Ġ",
        "L"
      ],
      [
        "u",
        "st"
      ],
      [
        "o",
        "re"
      ],
      [
        "Ġa",
        "ll"
      ],
      [
        "li",
        "z"
      ],
      [
        "E",
        "liz"
      ],
      [
        "e",
        "e"
      ],
      [
        "a",
        "m"
      ],
      [
        "s",
        "s"
      ],
      [
        "Ġb",
        "y"
      ],
      [
        "Ġm",
        "y"
      ],
      [
        "l",
        "f"
      ],
      [
        "q",
        "u"
      ],
      [
        "ab",
        "eth"
      ],
      [
        "Eliz",
        "abeth"
      ],
      [
        "i",
        "c"
      ],
      [
        "o",
        "o"
      ],
      [
        "Ġb",
        "ut"
      ],
      [
        "Ġm",
        "e"
      ],
      [
        "es",
        "s"
      ],
      [
        "Ġd",
        "e"
      ],
      [
        "a",
        "k"
      ],
      [
        "i",
        "f"
      ],
      [
        "en",
        "d"
      ],
      [
        "i",
        "ch"
      ],
      [
        "a",
        "ll"
      ],
      [
        "r",
        "om"
      ],
      [
        "T",
        "he"
      ],
      [
        "Ġn",
        "e"
      ],
      [
        "Ġ",
        "k"
      ],
      [
        "a",
        "g"
      ],
      [
        "Ġe",
        "x"
      ],
      [
        "Ġ",
        "C"
      ],
      [
        "se",
        "lf"
      ],
      [
        "Ġ",
        "âĢľ"
      ],
      [
        "-",
        "-"
      ],
      [
        "c",
        "y"
      ],
      [
        "Ġw",
        "ere"
      ],
      [
        "Ġ",
        "le"
      ],
      [
        "Ġs",
        "a"
      ],
      [
        "Ġ",
        "H"
      ],
      [
        "a",
        "nd"
      ],
      [
        "Ġbe",
        "en"
      ],
      [
        "Ġwh",
        "ich"
      ],
      [
        "ar",
        "d"
      ],
      [
        "om",
        "e"
      ],
      [
        "Ġn",
        "o"
      ],
      [
        "Ġ",
        "D"
      ],
      [
        "Ġc",
        "ould"
      ],
      [
        "Ġs",
        "t"
      ],
      [
        "ab",
        "le"
      ],
      [
        "u",
        "re"
      ],
      [
        "t",
        "h"
      ],
      [
        "Ġf",
        "rom"
      ],
      [
        "Ġ",
        "Elizabeth"
      ],
      [
        "Ġ",
        "very"
      ],
      [
        "Ġd",
        "o"
      ],
      [
        "he",
        "n"
      ],
      [
        "Ġthe",
        "y"
      ],
      [
        "Ġa",
        "m"
      ],
      [
        "Ġ",
        "W"
      ],
      [
        ",",
        "âĢĿ"
      ],
      [
        "Ġ",
        "_"
      ],
      [
        "Ġw",
        "e"
      ],
      [
        "u",
        "l"
      ],
      [
        "Ġw",
        "ould"
      ],
      [
        "Ġthe",
        "m"
      ],
      [
        "ar",
        "cy"
      ],
      [
        "ha",
        "n"
      ],
      [
        "Ġyou",
        "r"
      ],
      [
        "Ġwh",
        "o"
      ],
      [
        "t",
        "he"
      ],
      [
        "n",
        "ow"
      ],
      [
        "m",
        "ent"
      ],
      [
        "an",
        "t"
      ],
      [
        "ar",
        "t"
      ],
      [
        "es",
        "t"
      ],
      [
        "Ġm",
        "an"
      ],
      [
        "ou",
        "gh"
      ],
      [
        "Ġc",
        "om"
      ],
      [
        "Ġw",
        "hat"
      ],
      [
        "Ġ",
        "li"
      ],
      [
        "u",
        "n"
      ],
      [
        "on",
        "e"
      ],
      [
        "ĠD",
        "arcy"
      ],
      [
        "Ġsa",
        "id"
      ],
      [
        "Ġ",
        "S"
      ],
      [
        "an",
        "ce"
      ],
      [
        "r",
        "a"
      ],
      [
        "Ġw",
        "ill"
      ],
      [
        "ou",
        "s"
      ],
      [
        "f",
        "or"
      ],
      [
        "on",
        "g"
      ],
      [
        "it",
        "y"
      ],
      [
        "i",
        "l"
      ],
      [
        "Ġu",
        "n"
      ],
      [
        "u",
        "ch"
      ],
      [
        "Ġan",
        "y"
      ],
      [
        "Ġthe",
        "ir"
      ],
      [
        "ĠĠĠĠĠĠĠĠ",
        "ĠĠĠĠĠĠĠĠ"
      ],
      [
        "Ġs",
        "h"
      ],
      [
        "Ġa",
        "f"
      ],
      [
        "le",
        "y"
      ],
      [
        "at",
        "e"
      ],
      [
        "p",
        "e"
      ],
      [
        "t",
        "o"
      ],
      [
        "en",
        "n"
      ],
      [
        "Ġd",
        "is"
      ],
      [
        "Ġth",
        "is"
      ],
      [
        "v",
        "ed"
      ],
      [
        "it",
        "t"
      ],
      [
        "t",
        "her"
      ],
      [
        "is",
        "s"
      ],
      [
        "Ġsu",
        "ch"
      ],
      [
        "enn",
        "et"
      ],
      [
        "Ġ",
        "The"
      ],
      [
        "Ġp",
        "er"
      ],
      [
        "Ġthe",
        "re"
      ],
      [
        "at",
        "her"
      ],
      [
        "o",
        "ll"
      ],
      [
        "in",
        "d"
      ],
      [
        "i",
        "ve"
      ],
      [
        "o",
        "l"
      ],
      [
        "Ġa",
        "re"
      ],
      [
        "ou",
        "t"
      ],
      [
        "Ġ",
        "A"
      ],
      [
        "Ġo",
        "r"
      ],
      [
        "Ġk",
        "now"
      ],
      [
        "o",
        "st"
      ],
      [
        "Ġa",
        "g"
      ],
      [
        "Ġa",
        "d"
      ],
      [
        "Ġt",
        "han"
      ],
      [
        "i",
        "ght"
      ],
      [
        "Ġa",
        "l"
      ],
      [
        "Ġ",
        "v"
      ],
      [
        "a",
        "u"
      ],
      [
        "re",
        "d"
      ],
      [
        "Ġs",
        "ee"
      ],
      [
        "Ġm",
        "ore"
      ],
      [
        "ot",
        "her"
      ],
      [
        "ing",
        "ley"
      ],
      [
        "as",
        "t"
      ],
      [
        "an",
        "e"
      ],
      [
        "ĠB",
        "ennet"
      ],
      [
        "oo",
        "d"
      ],
      [
        "Ġm",
        "uch"
      ],
      [
        "f",
        "ore"
      ],
      [
        "o",
        "s"
      ],
      [
        "u",
        "s"
      ],
      [
        "J",
        "ane"
      ],
      [
        "ad",
        "y"
      ],
      [
        "Ġ",
        "im"
      ],
      [
        "is",
        "ter"
      ],
      [
        "en",
        "ce"
      ],
      [
        "Ġc",
        "an"
      ],
      [
        "ĠMr",
        "s"
      ],
      [
        "ak",
        "e"
      ],
      [
        "Ġw",
        "hen"
      ],
      [
        "k",
        "ed"
      ],
      [
        "Ġa",
        "b"
      ],
      [
        "v",
        "en"
      ],
      [
        "in",
        "e"
      ],
      [
        "Ġm",
        "ust"
      ],
      [
        "ag",
        "e"
      ],
      [
        "Ġs",
        "e"
      ],
      [
        "Ġp",
        "ro"
      ],
      [
        "re",
        "at"
      ],
      [
        "h",
        "i"
      ],
      [
        "er",
        "t"
      ],
      [
        "all",
        "y"
      ],
      [
        "ĠB",
        "ingley"
      ],
      [
        "p",
        "t"
      ],
      [
        "w",
        "n"
      ],
      [
        "Ġp",
        "re"
      ],
      [
        "ĠM",
        "iss"
      ],
      [
        "c",
        "c"
      ],
      [
        "Ġh",
        "ow"
      ],
      [
        "in",
        "k"
      ],
      [
        "Ġf",
        "e"
      ],
      [
        "Ġs",
        "ister"
      ],
      [
        "i",
        "ly"
      ],
      [
        "k",
        "e"
      ],
      [
        "w",
        "ay"
      ],
      [
        "Ġ",
        "en"
      ],
      [
        "Ġo",
        "ther"
      ],
      [
        "v",
        "ing"
      ],
      [
        "Ġp",
        "art"
      ],
      [
        "?",
        "âĢĿ"
      ],
      [
        "or",
        "t"
      ],
      [
        "is",
        "h"
      ],
      [
        "t",
        "e"
      ],
      [
        "Ġ",
        "Jane"
      ],
      [
        "re",
        "ss"
      ],
      [
        "Ġon",
        "e"
      ],
      [
        "Ġex",
        "p"
      ],
      [
        "am",
        "e"
      ],
      [
        "Ġd",
        "id"
      ],
      [
        "d",
        "e"
      ],
      [
        "Ġ",
        "if"
      ],
      [
        "d",
        "i"
      ],
      [
        "n",
        "t"
      ],
      [
        "Ġs",
        "p"
      ],
      [
        "ha",
        "m"
      ],
      [
        "f",
        "ect"
      ],
      [
        "Ġ",
        "j"
      ],
      [
        "it",
        "e"
      ],
      [
        "Ġ",
        "qu"
      ],
      [
        "le",
        "as"
      ],
      [
        "Ġha",
        "s"
      ],
      [
        "Ġe",
        "very"
      ],
      [
        "b",
        "le"
      ],
      [
        "r",
        "y"
      ],
      [
        "in",
        "s"
      ],
      [
        "ic",
        "k"
      ],
      [
        "ĠS",
        "he"
      ],
      [
        "Ġsh",
        "ould"
      ],
      [
        "c",
        "on"
      ],
      [
        "e",
        "ver"
      ],
      [
        "Ġ",
        "r"
      ],
      [
        "ĠB",
        "ut"
      ],
      [
        "Ġth",
        "ink"
      ],
      [
        "j",
        "ect"
      ],
      [
        "n",
        "ot"
      ],
      [
        "a",
        "c"
      ],
      [
        "t",
        "ter"
      ],
      [
        "Ġo",
        "b"
      ],
      [
        "id",
        "e"
      ],
      [
        "o",
        "f"
      ],
      [
        "ing",
        "s"
      ],
      [
        "Ġcom",
        "p"
      ],
      [
        "g",
        "e"
      ],
      [
        "is",
        "t"
      ],
      [
        "he",
        "d"
      ],
      [
        "Y",
        "ou"
      ],
      [
        "ur",
        "n"
      ],
      [
        "Ġw",
        "or"
      ],
      [
        "Ġher",
        "self"
      ],
      [
        "ion",
        "s"
      ],
      [
        "a",
        "re"
      ],
      [
        "Ġag",
        "ain"
      ],
      [
        "Ġs",
        "ome"
      ],
      [
        "im",
        "e"
      ],
      [
        "m",
        "ed"
      ],
      [
        "s",
        "u"
      ],
      [
        "t",
        "hat"
      ],
      [
        "Ġbe",
        "fore"
      ],
      [
        "Ġso",
        "on"
      ],
      [
        "Ġne",
        "ver"
      ],
      [
        "i",
        "e"
      ],
      [
        "i",
        "es"
      ],
      [
        "o",
        "se"
      ],
      [
        "ou",
        "ght"
      ],
      [
        "ere",
        "d"
      ],
      [
        "n",
        "er"
      ],
      [
        "ick",
        "ham"
      ],
      [
        "n",
        "ess"
      ],
      [
        "n",
        "g"
      ],
      [
        "Ġre",
        "p"
      ],
      [
        "Ġat",
        "t"
      ],
      [
        "h",
        "ing"
      ],
      [
        "Ġth",
        "ough"
      ],
      [
        "Ġon",
        "ly"
      ],
      [
        "oll",
        "ins"
      ],
      [
        "Ġm",
        "ar"
      ],
      [
        "Ġha",
        "pp"
      ],
      [
        "Ġg",
        "reat"
      ],
      [
        "b",
        "e"
      ],
      [
        "Ġo",
        "wn"
      ],
      [
        "itt",
        "le"
      ],
      [
        "Ġs",
        "ay"
      ],
      [
        "Ġn",
        "ow"
      ],
      [
        "Ġm",
        "ight"
      ],
      [
        "Ġaf",
        "ter"
      ],
      [
        "Ġa",
        "pp"
      ],
      [
        "Ġp",
        "o"
      ],
      [
        "ri",
        "end"
      ],
      [
        "ĠH",
        "e"
      ],
      [
        "r",
        "u"
      ],
      [
        "Ġs",
        "ha"
      ],
      [
        "p",
        "er"
      ],
      [
        "Ġ",
        "G"
      ],
      [
        "Ġt",
        "ime"
      ],
      [
        "ĠI",
        "t"
      ],
      [
        "on",
        "d"
      ],
      [
        "Ġm",
        "ost"
      ],
      [
        "ri",
        "ed"
      ],
      [
        "n",
        "e"
      ],
      [
        "Ġp",
        "leas"
      ],
      [
        "Ġu",
        "p"
      ],
      [
        "s",
        "p"
      ],
      [
        "Ġto",
        "o"
      ],
      [
        "Ġwe",
        "ll"
      ],
      [
        "Ġim",
        "p"
      ],
      [
        "o",
        "p"
      ],
      [
        "u",
        "m"
      ],
      [
        "ee",
        "l"
      ],
      [
        "re",
        "e"
      ],
      [
        "e",
        "ar"
      ],
      [
        "li",
        "e"
      ],
      [
        "Ġm",
        "ay"
      ],
      [
        "is",
        "e"
      ],
      [
        "i",
        "g"
      ],
      [
        "i",
        "ble"
      ],
      [
        "y",
        "di"
      ],
      [
        "ĠC",
        "ollins"
      ],
      [
        "ydi",
        "a"
      ],
      [
        "c",
        "i"
      ],
      [
        "ar",
        "y"
      ],
      [
        "oo",
        "k"
      ],
      [
        "M",
        "r"
      ],
      [
        "Ġg",
        "ood"
      ],
      [
        "ĠW",
        "ickham"
      ],
      [
        "r",
        "ation"
      ],
      [
        "Ġl",
        "ittle"
      ],
      [
        "au",
        "gh"
      ],
      [
        "i",
        "re"
      ],
      [
        "w",
        "e"
      ],
      [
        "ou",
        "nd"
      ],
      [
        "ert",
        "ain"
      ],
      [
        "Ġof",
        "f"
      ],
      [
        "as",
        "s"
      ],
      [
        "ust",
        "ration"
      ],
      [
        "Ġp",
        "l"
      ],
      [
        "u",
        "c"
      ],
      [
        "ll",
        "ustration"
      ],
      [
        "Ġg",
        "o"
      ],
      [
        "s",
        "ent"
      ],
      [
        "Ġf",
        "riend"
      ],
      [
        "ro",
        "om"
      ],
      [
        "I",
        "llustration"
      ],
      [
        "a",
        "ch"
      ],
      [
        "f",
        "ul"
      ],
      [
        "in",
        "t"
      ],
      [
        "ha",
        "r"
      ],
      [
        "Ġyou",
        "ng"
      ],
      [
        "ad",
        "e"
      ],
      [
        "p",
        "s"
      ],
      [
        "ir",
        "st"
      ],
      [
        "o",
        "ve"
      ],
      [
        "i",
        "ce"
      ],
      [
        "al",
        "k"
      ],
      [
        "e",
        "m"
      ],
      [
        "w",
        "ard"
      ],
      [
        "Ġ",
        "P"
      ],
      [
        "Ġm",
        "ake"
      ],
      [
        "Ġ",
        "ent"
      ],
      [
        "Ġd",
        "ay"
      ],
      [
        "ĠL",
        "ydia"
      ],
      [
        "Ġde",
        "ar"
      ],
      [
        "o",
        "d"
      ],
      [
        "Ġbe",
        "ing"
      ],
      [
        "Ġwith",
        "out"
      ],
      [
        "l",
        "ed"
      ],
      [
        "Ġa",
        "c"
      ],
      [
        "Ġthe",
        "n"
      ],
      [
        "Ġe",
        "ven"
      ],
      [
        "ĠL",
        "ady"
      ],
      [
        "Ġf",
        "a"
      ],
      [
        "am",
        "ily"
      ],
      [
        "c",
        "l"
      ],
      [
        "Ġsha",
        "ll"
      ],
      [
        "s",
        "hi"
      ],
      [
        "ent",
        "ion"
      ],
      [
        "o",
        "pe"
      ],
      [
        "th",
        "ing"
      ],
      [
        "c",
        "om"
      ],
      [
        "Ġ",
        "N"
      ],
      [
        "Ġb",
        "r"
      ],
      [
        "Ġin",
        "t"
      ],
      [
        "h",
        "is"
      ],
      [
        "w",
        "o"
      ],
      [
        "in",
        "ess"
      ],
      [
        "Ġf",
        "eel"
      ],
      [
        "et",
        "her"
      ],
      [
        "Ġl",
        "ong"
      ],
      [
        "ou",
        "nt"
      ],
      [
        ",",
        "--"
      ],
      [
        "Ġd",
        "es"
      ],
      [
        "Ġin",
        "to"
      ],
      [
        "Ġnot",
        "hing"
      ],
      [
        "Ġli",
        "ke"
      ],
      [
        "Ġ",
        "T"
      ],
      [
        "Ġf",
        "irst"
      ],
      [
        "Ġbe",
        "lie"
      ],
      [
        "b",
        "our"
      ],
      [
        "ow",
        "n"
      ],
      [
        "Ġu",
        "s"
      ],
      [
        "Ġf",
        "amily"
      ],
      [
        "Ġo",
        "ut"
      ],
      [
        "Ġth",
        "ought"
      ],
      [
        "Ġad",
        "d"
      ],
      [
        "augh",
        "ter"
      ],
      [
        "at",
        "ed"
      ],
      [
        "Ġre",
        "m"
      ],
      [
        "a",
        "ve"
      ],
      [
        "f",
        "ere"
      ],
      [
        "l",
        "t"
      ],
      [
        "Ġo",
        "ver"
      ],
      [
        "Ġman",
        "ner"
      ],
      [
        "ou",
        "se"
      ],
      [
        "ather",
        "ine"
      ],
      [
        "t",
        "en"
      ],
      [
        "Ġw",
        "he"
      ],
      [
        "i",
        "le"
      ],
      [
        "Ġcon",
        "s"
      ],
      [
        "Ġcon",
        "t"
      ],
      [
        "i",
        "z"
      ],
      [
        "i",
        "ous"
      ],
      [
        "b",
        "er"
      ],
      [
        "way",
        "s"
      ],
      [
        "Ġt",
        "wo"
      ],
      [
        "Ġc",
        "ertain"
      ],
      [
        "li",
        "ed"
      ],
      [
        "Ġe",
        "ver"
      ],
      [
        "Ġas",
        "s"
      ],
      [
        "Ġa",
        "r"
      ],
      [
        "Ġp",
        "r"
      ],
      [
        "Ġo",
        "p"
      ],
      [
        "li",
        "ght"
      ],
      [
        "Ġs",
        "c"
      ],
      [
        "Ġsu",
        "pp"
      ],
      [
        "Ġm",
        "other"
      ],
      [
        "Ġd",
        "aughter"
      ],
      [
        "Ġle",
        "tter"
      ],
      [
        "Ġhow",
        "ever"
      ],
      [
        "Ġ",
        "F"
      ],
      [
        "it",
        "her"
      ],
      [
        "Ġm",
        "ade"
      ],
      [
        "Ġh",
        "ope"
      ],
      [
        "ri",
        "ght"
      ],
      [
        "t",
        "urn"
      ],
      [
        "ce",
        "i"
      ],
      [
        "m",
        "e"
      ],
      [
        "s",
        "he"
      ],
      [
        "Ġa",
        "cc"
      ],
      [
        "Ġa",
        "way"
      ],
      [
        "Ġf",
        "ather"
      ],
      [
        "s",
        "er"
      ],
      [
        "ain",
        "t"
      ],
      [
        "nd",
        "er"
      ],
      [
        "c",
        "ed"
      ],
      [
        "i",
        "ed"
      ],
      [
        "Ġ",
        "You"
      ],
      [
        "Ġg",
        "ive"
      ],
      [
        "ĠC",
        "atherine"
      ],
      [
        "ra",
        "ct"
      ],
      [
        "in",
        "er"
      ],
      [
        "in",
        "ed"
      ],
      [
        "Ġs",
        "at"
      ],
      [
        "Ġh",
        "ouse"
      ],
      [
        "Ġl",
        "ast"
      ],
      [
        "e",
        "ll"
      ],
      [
        "n",
        "ing"
      ],
      [
        "Ġbe",
        "g"
      ],
      [
        "i",
        "v"
      ],
      [
        "ri",
        "age"
      ],
      [
        "a",
        "red"
      ],
      [
        "w",
        "as"
      ],
      [
        "Ġ",
        "room"
      ],
      [
        "is",
        "hed"
      ],
      [
        "ic",
        "ul"
      ],
      [
        "ĠĠĠĠĠĠĠĠĠĠĠĠĠĠĠĠ",
        "ĠĠĠĠĠĠĠĠĠĠĠĠĠĠĠĠ"
      ],
      [
        "Ġab",
        "out"
      ],
      [
        "Ġs",
        "pe"
      ],
      [
        "Ġman",
        "y"
      ],
      [
        "Ġal",
        "ways"
      ],
      [
        "Ġit",
        "s"
      ],
      [
        "sp",
        "ect"
      ],
      [
        "b",
        "t"
      ],
      [
        "b",
        "ject"
      ],
      [
        "s",
        "w"
      ],
      [
        "Ġhim",
        "self"
      ],
      [
        "ss",
        "ible"
      ],
      [
        "Ġme",
        "an"
      ],
      [
        "y",
        "ou"
      ],
      [
        "le",
        "ss"
      ],
      [
        "Ġg",
        "r"
      ],
      [
        "Ġw",
        "ay"
      ],
      [
        "e",
        "x"
      ],
      [
        "Ġw",
        "ish"
      ],
      [
        "un",
        "t"
      ],
      [
        "g",
        "ed"
      ],
      [
        "Ġs",
        "m"
      ],
      [
        "en",
        "er"
      ],
      [
        "Ġl",
        "ove"
      ],
      [
        "ard",
        "iner"
      ],
      [
        "il",
        "ity"
      ],
      [
        "Ġj",
        "ust"
      ],
      [
        "s",
        "on"
      ],
      [
        "au",
        "se"
      ],
      [
        "w",
        "h"
      ],
      [
        "Ġsu",
        "re"
      ],
      [
        "for",
        "t"
      ],
      [
        "Ġaf",
        "fect"
      ],
      [
        "Ġexp",
        "ect"
      ],
      [
        "c",
        "es"
      ],
      [
        "Ġre",
        "g"
      ],
      [
        "Ġre",
        "turn"
      ],
      [
        "Ġcan",
        "not"
      ],
      [
        "Ġrep",
        "lied"
      ],
      [
        "s",
        "o"
      ],
      [
        "le",
        "m"
      ],
      [
        "iz",
        "z"
      ],
      [
        "a",
        "ce"
      ],
      [
        "l",
        "ot"
      ],
      [
        "p",
        "r"
      ],
      [
        "s",
        "ol"
      ],
      [
        "v",
        "our"
      ],
      [
        "Ġw",
        "r"
      ],
      [
        "en",
        "s"
      ],
      [
        "en",
        "ed"
      ],
      [
        "ct",
        "ion"
      ],
      [
        "Ġan",
        "sw"
      ],
      [
        "end",
        "ed"
      ],
      [
        "Ġen",
        "ough"
      ],
      [
        "ward",
        "s"
      ],
      [
        "od",
        "y"
      ],
      [
        "er",
        "y"
      ],
      [
        "Ġfe",
        "lt"
      ],
      [
        "ig",
        "n"
      ],
      [
        "Ġspe",
        "ak"
      ],
      [
        "izz",
        "y"
      ],
      [
        "b",
        "ody"
      ],
      [
        "i",
        "gh"
      ],
      [
        "Ġin",
        "de"
      ],
      [
        "ate",
        "ly"
      ],
      [
        "ĠG",
        "ardiner"
      ],
      [
        "B",
        "ut"
      ],
      [
        "S",
        "he"
      ],
      [
        "w",
        "ill"
      ],
      [
        "Ġs",
        "om"
      ],
      [
        "ver",
        "s"
      ],
      [
        "if",
        "fere"
      ],
      [
        "Ġk",
        "ind"
      ],
      [
        "Ġsa",
        "w"
      ],
      [
        "b",
        "ut"
      ],
      [
        "ce",
        "pt"
      ],
      [
        "ation",
        "s"
      ],
      [
        "ĠL",
        "ong"
      ],
      [
        "ie",
        "ld"
      ],
      [
        "f",
        "e"
      ],
      [
        "Ġhe",
        "ar"
      ],
      [
        "li",
        "c"
      ],
      [
        "Ġu",
        "nder"
      ],
      [
        "w",
        "ith"
      ],
      [
        "is",
        "it"
      ],
      [
        "Ġc",
        "ha"
      ],
      [
        "as",
        "on"
      ],
      [
        "Ġqu",
        "ite"
      ],
      [
        "Ġc",
        "ried"
      ],
      [
        "Ġp",
        "ass"
      ],
      [
        "Ġg",
        "ent"
      ],
      [
        "Ġl",
        "ook"
      ],
      [
        "qu",
        "aint"
      ],
      [
        "Ġo",
        "cc"
      ],
      [
        "Ġbe",
        "tter"
      ],
      [
        "O",
        "h"
      ],
      [
        "h",
        "im"
      ],
      [
        "u",
        "d"
      ],
      [
        "Ġt",
        "r"
      ],
      [
        "ha",
        "ps"
      ],
      [
        "Ġc",
        "ame"
      ],
      [
        "ir",
        "l"
      ],
      [
        "bour",
        "n"
      ],
      [
        "H",
        "e"
      ],
      [
        "m",
        "ost"
      ],
      [
        "p",
        "l"
      ],
      [
        "p",
        "os"
      ],
      [
        "Ġs",
        "et"
      ],
      [
        "is",
        "f"
      ],
      [
        "ab",
        "ly"
      ],
      [
        "Ġsu",
        "bject"
      ],
      [
        "har",
        "lot"
      ],
      [
        "Ġbelie",
        "ve"
      ],
      [
        "cei",
        "ved"
      ],
      [
        "harlot",
        "te"
      ],
      [
        "er",
        "s"
      ],
      [
        "Ġof",
        "ten"
      ],
      [
        "for",
        "d"
      ],
      [
        "uc",
        "as"
      ],
      [
        "c",
        "le"
      ],
      [
        "v",
        "i"
      ],
      [
        "v",
        "ant"
      ],
      [
        "Ġ",
        "K"
      ],
      [
        "in",
        "ce"
      ],
      [
        "it",
        "u"
      ],
      [
        "Ġd",
        "one"
      ],
      [
        "om",
        "ent"
      ],
      [
        "Ġre",
        "ally"
      ],
      [
        "Ġmy",
        "self"
      ],
      [
        "!",
        "âĢĿ"
      ],
      [
        "Ġm",
        "or"
      ],
      [
        "Ġwh",
        "om"
      ],
      [
        "al",
        "ked"
      ],
      [
        "Ġpleas",
        "ure"
      ],
      [
        "n",
        "ce"
      ],
      [
        "Ġm",
        "at"
      ],
      [
        "ar",
        "ly"
      ],
      [
        "Ġre",
        "l"
      ],
      [
        "ad",
        "ies"
      ],
      [
        "Ġad",
        "m"
      ],
      [
        "Ġexp",
        "ress"
      ],
      [
        "Ġcons",
        "id"
      ],
      [
        "Ġt",
        "ill"
      ],
      [
        "Ġa",
        "unt"
      ],
      [
        "Ġc",
        "all"
      ],
      [
        "Ġc",
        "ome"
      ],
      [
        "ĠThe",
        "y"
      ],
      [
        "ĠA",
        "nd"
      ],
      [
        "Ġob",
        "ject"
      ],
      [
        "i",
        "am"
      ],
      [
        "Ġ",
        "ill"
      ],
      [
        "Ġw",
        "ant"
      ],
      [
        "re",
        "t"
      ],
      [
        "er",
        "m"
      ],
      [
        "Ġin",
        "st"
      ],
      [
        "Ġg",
        "i"
      ],
      [
        "em",
        "ber"
      ],
      [
        "Ġg",
        "ener"
      ],
      [
        "Ġfor",
        "m"
      ],
      [
        "Ġdo",
        "es"
      ],
      [
        "ac",
        "k"
      ],
      [
        "shi",
        "re"
      ],
      [
        "Ġwhe",
        "re"
      ],
      [
        "Ġbe",
        "c"
      ],
      [
        "Ġha",
        "nd"
      ],
      [
        "oo",
        "ked"
      ],
      [
        "Ġwho",
        "le"
      ],
      [
        "Ġdis",
        "t"
      ],
      [
        "Ġwor",
        "d"
      ],
      [
        "Ġgent",
        "lem"
      ],
      [
        "d",
        "ay"
      ],
      [
        "Ġw",
        "om"
      ],
      [
        "et",
        "y"
      ],
      [
        "Ġre",
        "c"
      ],
      [
        "Ġg",
        "irl"
      ],
      [
        "ĠL",
        "ucas"
      ],
      [
        "Ġle",
        "ss"
      ],
      [
        "ne",
        "w"
      ],
      [
        "a",
        "pp"
      ],
      [
        "f",
        "ield"
      ],
      [
        "Ġ",
        "R"
      ],
      [
        "Ġ",
        "end"
      ],
      [
        "Ġt",
        "urn"
      ],
      [
        "in",
        "u"
      ],
      [
        "is",
        "ed"
      ],
      [
        "Ġc",
        "h"
      ],
      [
        "Ġc",
        "our"
      ],
      [
        "Ġre",
        "ad"
      ],
      [
        "ow",
        "ed"
      ],
      [
        "Ġsu",
        "r"
      ],
      [
        "ain",
        "ed"
      ],
      [
        "Ġv",
        "isit"
      ],
      [
        "Ġfeel",
        "ings"
      ],
      [
        "Ġinde",
        "ed"
      ],
      [
        "ĠLong",
        "bourn"
      ],
      [
        "v",
        "es"
      ],
      [
        "Ġhe",
        "ard"
      ],
      [
        "eth",
        "ing"
      ],
      [
        "Ġen",
        "g"
      ],
      [
        "med",
        "i"
      ],
      [
        "ract",
        "er"
      ],
      [
        "v",
        "ent"
      ],
      [
        "x",
        "t"
      ],
      [
        "Ġt",
        "ake"
      ],
      [
        "ll",
        "y"
      ],
      [
        "Ġd",
        "own"
      ],
      [
        "Ġha",
        "ving"
      ],
      [
        "Ġl",
        "adies"
      ],
      [
        "ĠL",
        "izzy"
      ],
      [
        "ure",
        "d"
      ],
      [
        "Ġhapp",
        "y"
      ],
      [
        "Ġaffect",
        "ion"
      ],
      [
        "c",
        "ess"
      ],
      [
        "f",
        "t"
      ],
      [
        "Ġf",
        "oll"
      ],
      [
        "ot",
        "h"
      ],
      [
        "Ġst",
        "ill"
      ],
      [
        "Ġpre",
        "sent"
      ],
      [
        "I",
        "t"
      ],
      [
        "c",
        "er"
      ],
      [
        "g",
        "ether"
      ],
      [
        "m",
        "on"
      ],
      [
        "Ġo",
        "ur"
      ],
      [
        "ou",
        "bt"
      ],
      [
        "en",
        "se"
      ],
      [
        "it",
        "ion"
      ],
      [
        "an",
        "y"
      ],
      [
        "itt",
        "y"
      ],
      [
        "Ġse",
        "en"
      ],
      [
        "ether",
        "field"
      ],
      [
        "o",
        "y"
      ],
      [
        "Ġw",
        "alk"
      ],
      [
        "Ġm",
        "oment"
      ],
      [
        "as",
        "e"
      ],
      [
        "Ġfor",
        "t"
      ],
      [
        "Ġl",
        "ooked"
      ],
      [
        "Ġfe",
        "w"
      ],
      [
        "Ġac",
        "quaint"
      ],
      [
        "Ġc",
        "ount"
      ],
      [
        "Ġn",
        "or"
      ],
      [
        "ce",
        "ed"
      ],
      [
        "Ġper",
        "son"
      ],
      [
        "Ġsister",
        "s"
      ],
      [
        "Ġbr",
        "other"
      ],
      [
        "Ġsat",
        "isf"
      ],
      [
        "A",
        "nd"
      ],
      [
        "f",
        "f"
      ],
      [
        "Ġs",
        "er"
      ],
      [
        "Ġs",
        "ame"
      ],
      [
        "Ġf",
        "ind"
      ],
      [
        "as",
        "ion"
      ],
      [
        "Ġin",
        "v"
      ],
      [
        "Ġpart",
        "icul"
      ],
      [
        "Ġpl",
        "ace"
      ],
      [
        "Ġeven",
        "ing"
      ],
      [
        "d",
        "u"
      ],
      [
        "d",
        "is"
      ],
      [
        "s",
        "ome"
      ],
      [
        "t",
        "y"
      ],
      [
        "ent",
        "ly"
      ],
      [
        "Ġper",
        "fect"
      ],
      [
        "shi",
        "p"
      ],
      [
        "Ġmor",
        "ning"
      ],
      [
        "Ġy",
        "ear"
      ],
      [
        "Ġe",
        "y"
      ],
      [
        "Ġle",
        "ast"
      ],
      [
        "one",
        "l"
      ],
      [
        "ol",
        "onel"
      ],
      [
        "Ġapp",
        "ear"
      ],
      [
        "we",
        "en"
      ],
      [
        "Ġadd",
        "ed"
      ],
      [
        "Ġop",
        "in"
      ],
      [
        "E",
        "R"
      ],
      [
        "Ġt",
        "alk"
      ],
      [
        "Ġw",
        "ent"
      ],
      [
        "Ġto",
        "ld"
      ],
      [
        "Ġre",
        "ason"
      ],
      [
        "Ġcon",
        "f"
      ],
      [
        "Ġun",
        "cle"
      ],
      [
        "Ġany",
        "thing"
      ],
      [
        "Ġim",
        "medi"
      ],
      [
        "H",
        "A"
      ],
      [
        "i",
        "al"
      ],
      [
        "he",
        "s"
      ],
      [
        "Ġf",
        "ound"
      ],
      [
        "Ġd",
        "et"
      ],
      [
        "Ġha",
        "r"
      ],
      [
        "Ġha",
        "lf"
      ],
      [
        "Ġwor",
        "ld"
      ],
      [
        "Ġcertain",
        "ly"
      ],
      [
        "Ġansw",
        "er"
      ],
      [
        "a",
        "ir"
      ],
      [
        "Ġ",
        "1"
      ],
      [
        "Ġt",
        "ell"
      ],
      [
        "ha",
        "d"
      ],
      [
        "it",
        "s"
      ],
      [
        "Ġc",
        "ar"
      ],
      [
        "Ġe",
        "l"
      ],
      [
        "Ġcha",
        "racter"
      ],
      [
        "a",
        "p"
      ],
      [
        "k",
        "now"
      ],
      [
        "o",
        "ld"
      ],
      [
        "t",
        "on"
      ],
      [
        "Ġb",
        "oth"
      ],
      [
        "Ġp",
        "e"
      ],
      [
        "ĠC",
        "harlotte"
      ],
      [
        "ĠH",
        "er"
      ],
      [
        "Ġthere",
        "fore"
      ],
      [
        "Ġob",
        "ser"
      ],
      [
        "Ġhapp",
        "iness"
      ],
      [
        "ree",
        "able"
      ],
      [
        "Ġconsid",
        "er"
      ],
      [
        "Ġ",
        "O"
      ],
      [
        "Ġto",
        "wards"
      ],
      [
        "Ġc",
        "iv"
      ],
      [
        "at",
        "ur"
      ],
      [
        "Ġre",
        "f"
      ],
      [
        "ak",
        "ing"
      ],
      [
        "Ġle",
        "ft"
      ],
      [
        "Ġper",
        "haps"
      ],
      [
        "ĠN",
        "etherfield"
      ],
      [
        "Ġcont",
        "inu"
      ],
      [
        "wh",
        "ich"
      ],
      [
        "Ġsom",
        "ething"
      ],
      [
        "vers",
        "ation"
      ],
      [
        "iffere",
        "nt"
      ],
      [
        "ĠK",
        "itty"
      ],
      [
        "a",
        "ut"
      ],
      [
        "b",
        "y"
      ],
      [
        "s",
        "h"
      ],
      [
        "Ġs",
        "ince"
      ],
      [
        "Ġhe",
        "re"
      ],
      [
        "Ġy",
        "et"
      ],
      [
        "im",
        "es"
      ],
      [
        "ĠM",
        "y"
      ],
      [
        "ri",
        "v"
      ],
      [
        "Ġde",
        "light"
      ],
      [
        "Ġmar",
        "ry"
      ],
      [
        "Mr",
        "s"
      ],
      [
        "cer",
        "n"
      ],
      [
        "C",
        "HA"
      ],
      [
        "m",
        "pt"
      ],
      [
        "n",
        "ect"
      ],
      [
        "Ġ",
        "X"
      ],
      [
        "it",
        "ed"
      ],
      [
        "Ġto",
        "wn"
      ],
      [
        "Ġh",
        "ome"
      ],
      [
        "Ġin",
        "c"
      ],
      [
        "Ġbe",
        "t"
      ],
      [
        "Ġbe",
        "ha"
      ],
      [
        "an",
        "ces"
      ],
      [
        "Ġg",
        "et"
      ],
      [
        "Ġth",
        "ree"
      ],
      [
        "Ġne",
        "xt"
      ],
      [
        "for",
        "m"
      ],
      [
        "Ġsp",
        "o"
      ],
      [
        "Ġopin",
        "ion"
      ],
      [
        "d",
        "ly"
      ],
      [
        "e",
        "or"
      ],
      [
        "g",
        "er"
      ],
      [
        "Ġ",
        "ide"
      ],
      [
        "Ġm",
        "ind"
      ],
      [
        "ing",
        "ly"
      ],
      [
        "Ġre",
        "spect"
      ],
      [
        "ere",
        "st"
      ],
      [
        "Ġle",
        "ave"
      ],
      [
        "Ġatt",
        "ention"
      ],
      [
        "P",
        "T"
      ],
      [
        "p",
        "re"
      ],
      [
        "st",
        "and"
      ],
      [
        "Ġg",
        "one"
      ],
      [
        "ct",
        "ly"
      ],
      [
        "Ġon",
        "ce"
      ],
      [
        "ak",
        "en"
      ],
      [
        "ĠH",
        "is"
      ],
      [
        "Ġpo",
        "int"
      ],
      [
        "Ġwom",
        "an"
      ],
      [
        "Ġsur",
        "pr"
      ],
      [
        "CHA",
        "PT"
      ],
      [
        "CHAPT",
        "ER"
      ],
      [
        "M",
        "y"
      ],
      [
        "Y",
        "es"
      ],
      [
        "c",
        "k"
      ],
      [
        "i",
        "red"
      ],
      [
        "r",
        "an"
      ],
      [
        "u",
        "e"
      ],
      [
        "Ġf",
        "ar"
      ],
      [
        "Ġh",
        "our"
      ],
      [
        "Ġbe",
        "st"
      ],
      [
        "Ġre",
        "st"
      ],
      [
        "m",
        "y"
      ],
      [
        "o",
        "ver"
      ],
      [
        "Ġm",
        "ention"
      ],
      [
        "ar",
        "k"
      ],
      [
        "or",
        "d"
      ],
      [
        "Ġh",
        "on"
      ],
      [
        "Ġe",
        "ach"
      ],
      [
        "im",
        "p"
      ],
      [
        "Ġre",
        "sol"
      ],
      [
        "Ġth",
        "r"
      ],
      [
        "Ġth",
        "ose"
      ],
      [
        "Ġwh",
        "ile"
      ],
      [
        "Ġst",
        "ay"
      ],
      [
        "Ġj",
        "o"
      ],
      [
        "Ġr",
        "ather"
      ],
      [
        "Ġup",
        "on"
      ],
      [
        "ery",
        "ton"
      ],
      [
        "Ġpass",
        "ed"
      ],
      [
        "Ġgi",
        "ven"
      ],
      [
        "b",
        "and"
      ],
      [
        "u",
        "se"
      ],
      [
        "Ġs",
        "il"
      ],
      [
        "Ġthe",
        "se"
      ],
      [
        "Ġm",
        "is"
      ],
      [
        "Ġc",
        "hi"
      ],
      [
        "ĠI",
        "f"
      ],
      [
        "Ġe",
        "ither"
      ],
      [
        "ut",
        "e"
      ],
      [
        "Ġg",
        "l"
      ],
      [
        "Ġne",
        "w"
      ],
      [
        "ĠC",
        "olonel"
      ],
      [
        "Ġwho",
        "se"
      ],
      [
        "us",
        "band"
      ],
      [
        "Ġmar",
        "riage"
      ],
      [
        "ond",
        "on"
      ],
      [
        "Ġbeg",
        "an"
      ],
      [
        "Ġset",
        "t"
      ],
      [
        "e",
        "a"
      ],
      [
        "at",
        "t"
      ],
      [
        "ir",
        "c"
      ],
      [
        "Ġk",
        "new"
      ],
      [
        "ag",
        "ed"
      ],
      [
        "ment",
        "s"
      ],
      [
        "Ġli",
        "fe"
      ],
      [
        "il",
        "ed"
      ],
      [
        "oll",
        "ect"
      ],
      [
        "Ġsee",
        "med"
      ],
      [
        "Ġmar",
        "ried"
      ],
      [
        "ĠG",
        "eor"
      ],
      [
        "vi",
        "our"
      ],
      [
        "ember",
        "ley"
      ],
      [
        "Ġbec",
        "ause"
      ],
      [
        "Ġimmedi",
        "ately"
      ],
      [
        ".",
        "_"
      ],
      [
        "o",
        "ssible"
      ],
      [
        "p",
        "art"
      ],
      [
        "Ġ",
        "est"
      ],
      [
        "Ġd",
        "ire"
      ],
      [
        "Ġsh",
        "ort"
      ],
      [
        "Ġal",
        "most"
      ],
      [
        "Y",
        "our"
      ],
      [
        "b",
        "r"
      ],
      [
        "i",
        "x"
      ],
      [
        "Ġto",
        "gether"
      ],
      [
        "Ġc",
        "ous"
      ],
      [
        "ow",
        "er"
      ],
      [
        "un",
        "e"
      ],
      [
        "Ġpo",
        "ssible"
      ],
      [
        "Ġmean",
        "s"
      ],
      [
        "Ġbet",
        "ween"
      ],
      [
        "W",
        "hen"
      ],
      [
        "c",
        "our"
      ],
      [
        "f",
        "ter"
      ],
      [
        "Ġp",
        "ur"
      ],
      [
        "Ġe",
        "m"
      ],
      [
        "Ġe",
        "qu"
      ],
      [
        "Ġl",
        "ady"
      ],
      [
        "Ġex",
        "t"
      ],
      [
        "Ġcom",
        "ing"
      ],
      [
        "Ġsee",
        "ing"
      ],
      [
        "ress",
        "ed"
      ],
      [
        "ĠF",
        "or"
      ],
      [
        "Ġocc",
        "asion"
      ],
      [
        "Ġgener",
        "al"
      ],
      [
        "a",
        "id"
      ],
      [
        "w",
        "hat"
      ],
      [
        "Ġs",
        "ide"
      ],
      [
        "it",
        "ation"
      ],
      [
        "Ġm",
        "in"
      ],
      [
        "Ġhe",
        "art"
      ],
      [
        "Ġd",
        "an"
      ],
      [
        "ĠI",
        "n"
      ],
      [
        "li",
        "ke"
      ],
      [
        "Ġe",
        "as"
      ],
      [
        "se",
        "qu"
      ],
      [
        "Ġre",
        "ceived"
      ],
      [
        "ut",
        "h"
      ],
      [
        "Ġknow",
        "n"
      ],
      [
        "Ġother",
        "s"
      ],
      [
        "Ġpart",
        "y"
      ],
      [
        "Ġgo",
        "ing"
      ],
      [
        "Ġfriend",
        "s"
      ],
      [
        "Ġfa",
        "vour"
      ],
      [
        "igh",
        "bour"
      ],
      [
        "Ġey",
        "es"
      ],
      [
        "f",
        "fect"
      ],
      [
        "p",
        "leas"
      ],
      [
        "w",
        "ould"
      ],
      [
        "y",
        "our"
      ],
      [
        "Ġs",
        "ent"
      ],
      [
        "Ġo",
        "pp"
      ],
      [
        "en",
        "ess"
      ],
      [
        "Ġb",
        "l"
      ],
      [
        "Ġc",
        "l"
      ],
      [
        "Ġd",
        "in"
      ],
      [
        "Ġd",
        "oubt"
      ],
      [
        "Ġin",
        "ter"
      ],
      [
        "ee",
        "p"
      ],
      [
        "Ġme",
        "et"
      ],
      [
        "if",
        "e"
      ],
      [
        "Ġsee",
        "m"
      ],
      [
        "Ġab",
        "le"
      ],
      [
        "op",
        "le"
      ],
      [
        "Ġwhe",
        "ther"
      ],
      [
        "Ġcour",
        "se"
      ],
      [
        "irc",
        "um"
      ],
      [
        "Ġ",
        "E"
      ],
      [
        "Ġa",
        "ct"
      ],
      [
        "ar",
        "n"
      ],
      [
        "Ġin",
        "d"
      ],
      [
        "Ġin",
        "qu"
      ],
      [
        "Ġg",
        "ave"
      ],
      [
        "Ġan",
        "other"
      ],
      [
        "Ġcon",
        "versation"
      ],
      [
        "ĠL",
        "ondon"
      ],
      [
        "ĠW",
        "ill"
      ],
      [
        "os",
        "ings"
      ],
      [
        "te",
        "mpt"
      ],
      [
        "Ġob",
        "li"
      ],
      [
        "Ġagain",
        "st"
      ],
      [
        "u",
        "ght"
      ],
      [
        "he",
        "re"
      ],
      [
        "ar",
        "ce"
      ],
      [
        "Ġp",
        "ain"
      ],
      [
        "ĠM",
        "eryton"
      ],
      [
        "Ġle",
        "t"
      ],
      [
        "the",
        "m"
      ],
      [
        "ĠA",
        "ll"
      ],
      [
        "os",
        "ed"
      ],
      [
        "Ġreg",
        "ard"
      ],
      [
        "Ġperfect",
        "ly"
      ],
      [
        "Ġbeha",
        "viour"
      ],
      [
        "k",
        "s"
      ],
      [
        "l",
        "ves"
      ],
      [
        "o",
        "ice"
      ],
      [
        "re",
        "ad"
      ],
      [
        "Ġb",
        "ack"
      ],
      [
        "Ġc",
        "han"
      ],
      [
        "Ġh",
        "usband"
      ],
      [
        "Ġbe",
        "aut"
      ],
      [
        "Ġfor",
        "g"
      ],
      [
        "Ġl",
        "ist"
      ],
      [
        "Ġcon",
        "nect"
      ],
      [
        "us",
        "iness"
      ],
      [
        "Ġtoo",
        "k"
      ],
      [
        "Ġmanner",
        "s"
      ],
      [
        "ĠĠĠĠĠĠĠĠĠĠĠĠĠĠĠĠĠĠĠĠĠĠĠĠĠĠĠĠĠĠĠĠ",
        "ĠĠĠĠĠĠĠĠ"
      ],
      [
        "Ġide",
        "a"
      ],
      [
        "ircum",
        "st"
      ],
      [
        "e",
        "f"
      ],
      [
        "u",
        "lly"
      ],
      [
        "ar",
        "m"
      ],
      [
        "at",
        "ure"
      ],
      [
        "Ġe",
        "v"
      ],
      [
        "im",
        "ent"
      ],
      [
        "ow",
        "ing"
      ],
      [
        "Ġas",
        "k"
      ],
      [
        "Ġst",
        "e"
      ],
      [
        "Ġcom",
        "m"
      ],
      [
        "Ġcom",
        "fort"
      ],
      [
        "ĠThe",
        "re"
      ],
      [
        "Ġdaughter",
        "s"
      ],
      [
        "Ġdet",
        "erm"
      ],
      [
        "h",
        "ood"
      ],
      [
        "Ġw",
        "ife"
      ],
      [
        "Ġs",
        "ense"
      ],
      [
        "en",
        "g"
      ],
      [
        "Ġc",
        "are"
      ],
      [
        "Ġf",
        "re"
      ],
      [
        "Ġp",
        "rom"
      ],
      [
        "se",
        "lves"
      ],
      [
        "Ġcon",
        "cern"
      ],
      [
        "The",
        "y"
      ],
      [
        "ĠW",
        "hat"
      ],
      [
        "ond",
        "er"
      ],
      [
        "ex",
        "p"
      ],
      [
        "Ġunder",
        "stand"
      ],
      [
        "ĠR",
        "osings"
      ],
      [
        "Ġacquaint",
        "ance"
      ],
      [
        "Ġsett",
        "led"
      ],
      [
        "Ġcous",
        "in"
      ],
      [
        "arce",
        "ly"
      ],
      [
        "I",
        "n"
      ],
      [
        "g",
        "u"
      ],
      [
        "i",
        "able"
      ],
      [
        "p",
        "end"
      ],
      [
        "Ġw",
        "ee"
      ],
      [
        "Ġw",
        "alked"
      ],
      [
        "Ġh",
        "op"
      ],
      [
        "at",
        "ing"
      ],
      [
        "ce",
        "ive"
      ],
      [
        "Ġyour",
        "self"
      ],
      [
        "ant",
        "ly"
      ],
      [
        "Ġpro",
        "b"
      ],
      [
        "ish",
        "ment"
      ],
      [
        "Ġqu",
        "est"
      ],
      [
        "ĠP",
        "emberley"
      ],
      [
        "Ġsupp",
        "ose"
      ],
      [
        "Ġacc",
        "ount"
      ],
      [
        "vant",
        "age"
      ],
      [
        "Ġgentlem",
        "an"
      ],
      [
        "Ġcontinu",
        "ed"
      ],
      [
        "Ġhon",
        "our"
      ],
      [
        "l",
        "p"
      ],
      [
        "ha",
        "ve"
      ],
      [
        "Ġc",
        "har"
      ],
      [
        "Ġh",
        "um"
      ],
      [
        "st",
        "on"
      ],
      [
        "Ġg",
        "u"
      ],
      [
        "Ġcon",
        "v"
      ],
      [
        "ur",
        "ing"
      ],
      [
        "the",
        "re"
      ],
      [
        "Ġli",
        "ve"
      ],
      [
        "ĠS",
        "ir"
      ],
      [
        "Ġper",
        "su"
      ],
      [
        "Ġevery",
        "thing"
      ],
      [
        "Ġint",
        "erest"
      ],
      [
        "Ġgr",
        "at"
      ],
      [
        "Ġreturn",
        "ed"
      ],
      [
        "Ġform",
        "er"
      ],
      [
        "Ġparticul",
        "ar"
      ],
      [
        "Ġhar",
        "dly"
      ],
      [
        "Ġel",
        "se"
      ],
      [
        "Ġpe",
        "ople"
      ],
      [
        "ĠWill",
        "iam"
      ],
      [
        "i",
        "b"
      ],
      [
        "i",
        "ent"
      ],
      [
        "o",
        "ved"
      ],
      [
        "Ġt",
        "em"
      ],
      [
        "Ġs",
        "ens"
      ],
      [
        "or",
        "y"
      ],
      [
        "Ġh",
        "igh"
      ],
      [
        "Ġin",
        "f"
      ],
      [
        "at",
        "ter"
      ],
      [
        "Ġp",
        "ower"
      ],
      [
        "the",
        "ir"
      ],
      [
        "Ġad",
        "v"
      ],
      [
        "Ġsp",
        "ir"
      ],
      [
        "Ġpr",
        "ide"
      ],
      [
        "Ġciv",
        "ility"
      ],
      [
        "ĠGeor",
        "ge"
      ],
      [
        "I",
        "I"
      ],
      [
        "g",
        "r"
      ],
      [
        "o",
        "int"
      ],
      [
        "re",
        "w"
      ],
      [
        "Ġo",
        "ught"
      ],
      [
        "Ġd",
        "ifferent"
      ],
      [
        "et",
        "imes"
      ],
      [
        "st",
        "er"
      ],
      [
        "Ġan",
        "x"
      ],
      [
        "Ġu",
        "su"
      ],
      [
        "our",
        "gh"
      ],
      [
        "Ġdo",
        "or"
      ],
      [
        "ĠW",
        "e"
      ],
      [
        "Ġag",
        "reeable"
      ],
      [
        "ert",
        "ford"
      ],
      [
        "Ġpre",
        "t"
      ],
      [
        "ac",
        "hed"
      ],
      [
        "Ġexpect",
        "ed"
      ],
      [
        "itu",
        "de"
      ],
      [
        "Ġcall",
        "ed"
      ],
      [
        "Ġgirl",
        "s"
      ],
      [
        "Ġthr",
        "ough"
      ],
      [
        "ertford",
        "shire"
      ],
      [
        "M",
        "iss"
      ],
      [
        "_",
        ","
      ],
      [
        "p",
        "ro"
      ],
      [
        "r",
        "ow"
      ],
      [
        "r",
        "ong"
      ],
      [
        "t",
        "ing"
      ],
      [
        "v",
        "o"
      ],
      [
        "w",
        "ere"
      ],
      [
        "Ġ",
        "right"
      ],
      [
        "Ġa",
        "ston"
      ],
      [
        "in",
        "ced"
      ],
      [
        "Ġb",
        "all"
      ],
      [
        "le",
        "ct"
      ],
      [
        "Ġne",
        "cess"
      ],
      [
        "ĠH",
        "ow"
      ],
      [
        "Ġdis",
        "pos"
      ],
      [
        "Ġimp",
        "ossible"
      ],
      [
        "Ġlike",
        "ly"
      ],
      [
        "Ġsc",
        "arcely"
      ],
      [
        "Ġrec",
        "ollect"
      ],
      [
        "Ġend",
        "ea"
      ],
      [
        "Ġ1",
        "8"
      ],
      [
        "Ġspo",
        "ke"
      ],
      [
        "9",
        "4"
      ],
      [
        "B",
        "ingley"
      ],
      [
        "T",
        "his"
      ],
      [
        "c",
        "ould"
      ],
      [
        "c",
        "ome"
      ],
      [
        "ou",
        "d"
      ],
      [
        "Ġb",
        "usiness"
      ],
      [
        "Ġm",
        "en"
      ],
      [
        "Ġm",
        "et"
      ],
      [
        "Ġm",
        "ere"
      ],
      [
        "Ġhe",
        "lp"
      ],
      [
        "Ġp",
        "ut"
      ],
      [
        "id",
        "ent"
      ],
      [
        "Ġne",
        "ighbour"
      ],
      [
        "ra",
        "id"
      ],
      [
        "Ġim",
        "ag"
      ],
      [
        "Ġfe",
        "ar"
      ],
      [
        "Ġcount",
        "ry"
      ],
      [
        "Ġyear",
        "s"
      ],
      [
        "Ġcar",
        "riage"
      ],
      [
        "e",
        "very"
      ],
      [
        "m",
        "an"
      ],
      [
        "in",
        "ation"
      ],
      [
        "Ġs",
        "or"
      ],
      [
        "ha",
        "pp"
      ],
      [
        "it",
        "ing"
      ],
      [
        "Ġm",
        "ist"
      ],
      [
        "ut",
        "es"
      ],
      [
        "ĠB",
        "ourgh"
      ],
      [
        "Ġaf",
        "f"
      ],
      [
        "te",
        "ll"
      ],
      [
        "ie",
        "w"
      ],
      [
        "ru",
        "e"
      ],
      [
        "Ġoff",
        "ic"
      ],
      [
        "Ġlong",
        "er"
      ],
      [
        "itu",
        "ation"
      ],
      [
        "Ġturn",
        "ed"
      ],
      [
        "c",
        "hed"
      ],
      [
        "d",
        "o"
      ],
      [
        "d",
        "es"
      ],
      [
        "l",
        "er"
      ],
      [
        "p",
        "ar"
      ],
      [
        "w",
        "hen"
      ],
      [
        "w",
        "ise"
      ],
      [
        "y",
        "ond"
      ],
      [
        "Ġa",
        "w"
      ],
      [
        "Ġw",
        "is"
      ],
      [
        "Ġw",
        "ished"
      ],
      [
        "Ġw",
        "onder"
      ],
      [
        "Ġs",
        "ort"
      ],
      [
        "as",
        "ter"
      ],
      [
        "Ġd",
        "ra"
      ],
      [
        "Ġd",
        "are"
      ],
      [
        "li",
        "ps"
      ],
      [
        "Ġre",
        "pe"
      ],
      [
        "ad",
        "ing"
      ],
      [
        "ur",
        "st"
      ],
      [
        "Ġne",
        "ar"
      ],
      [
        "Ġdis",
        "c"
      ],
      [
        "Ġse",
        "c"
      ],
      [
        "Ġpo",
        "ss"
      ],
      [
        "Ġent",
        "ered"
      ],
      [
        "com",
        "m"
      ],
      [
        "Ġsm",
        "ile"
      ],
      [
        "Ġfort",
        "une"
      ],
      [
        "Ġconv",
        "inced"
      ],
      [
        "D",
        "arcy"
      ],
      [
        "H",
        "ow"
      ],
      [
        "c",
        "ri"
      ],
      [
        "e",
        "as"
      ],
      [
        "p",
        "le"
      ],
      [
        "u",
        "p"
      ],
      [
        "z",
        "will"
      ],
      [
        "Ġt",
        "able"
      ],
      [
        "it",
        "zwill"
      ],
      [
        "Ġc",
        "ircumst"
      ],
      [
        "Ġhe",
        "ad"
      ],
      [
        "Ġf",
        "l"
      ],
      [
        "ar",
        "i"
      ],
      [
        "Ġre",
        "al"
      ],
      [
        "Ġas",
        "ked"
      ],
      [
        "id",
        "ed"
      ],
      [
        "if",
        "f"
      ],
      [
        "ag",
        "er"
      ],
      [
        "ĠW",
        "hen"
      ],
      [
        "hi",
        "lips"
      ],
      [
        "Ġpre",
        "vent"
      ],
      [
        "ru",
        "d"
      ],
      [
        "op",
        "y"
      ],
      [
        "Ġac",
        "cept"
      ],
      [
        "ĠLady",
        "ship"
      ],
      [
        "Ġop",
        "en"
      ],
      [
        "Ġwr",
        "ite"
      ],
      [
        "Ġhand",
        "some"
      ],
      [
        "Ġtalk",
        "ing"
      ],
      [
        "Ġ18",
        "94"
      ],
      [
        "itzwill",
        "iam"
      ],
      [
        "C",
        "opy"
      ],
      [
        "I",
        "f"
      ],
      [
        "W",
        "hat"
      ],
      [
        "]",
        "]"
      ],
      [
        "d",
        "d"
      ],
      [
        "g",
        "ood"
      ],
      [
        "Ġt",
        "alked"
      ],
      [
        "ou",
        "red"
      ],
      [
        "Ġb",
        "re"
      ],
      [
        "Ġf",
        "our"
      ],
      [
        "Ġn",
        "atur"
      ],
      [
        "Ġin",
        "cl"
      ],
      [
        "Ġin",
        "form"
      ],
      [
        "Ġg",
        "ra"
      ],
      [
        "ĠM",
        "ary"
      ],
      [
        "Ġsu",
        "ff"
      ],
      [
        "Ġcon",
        "sequ"
      ],
      [
        "ro",
        "ve"
      ],
      [
        "the",
        "y"
      ],
      [
        "Ġad",
        "vantage"
      ],
      [
        "red",
        "it"
      ],
      [
        "age",
        "ment"
      ],
      [
        "fere",
        "nce"
      ],
      [
        "Ġass",
        "ure"
      ],
      [
        "Ġsm",
        "all"
      ],
      [
        "Ġmat",
        "ter"
      ],
      [
        "Ġgentlem",
        "en"
      ],
      [
        "app",
        "oint"
      ],
      [
        "ĠFor",
        "ster"
      ],
      [
        "ĠAll",
        "en"
      ],
      [
        "Copy",
        "right"
      ],
      [
        "B",
        "ennet"
      ],
      [
        "N",
        "o"
      ],
      [
        "T",
        "hat"
      ],
      [
        "[",
        "_"
      ],
      [
        "c",
        "ing"
      ],
      [
        "i",
        "or"
      ],
      [
        "i",
        "an"
      ],
      [
        "s",
        "ence"
      ],
      [
        "Ġ",
        "es"
      ],
      [
        "re",
        "n"
      ],
      [
        "it",
        "ies"
      ],
      [
        "Ġre",
        "qu"
      ],
      [
        "Ġde",
        "al"
      ],
      [
        "end",
        "ing"
      ],
      [
        "ul",
        "t"
      ],
      [
        "ous",
        "and"
      ],
      [
        "ĠA",
        "s"
      ],
      [
        "Ġcomp",
        "li"
      ],
      [
        "Ġatt",
        "ent"
      ],
      [
        "Ġpleas",
        "ed"
      ],
      [
        "Ġpl",
        "ay"
      ],
      [
        "Ġbr",
        "ought"
      ],
      [
        "Ġsatisf",
        "ied"
      ],
      [
        "air",
        "s"
      ],
      [
        "riv",
        "al"
      ],
      [
        "._",
        "]]"
      ],
      [
        "Ġsor",
        "ry"
      ],
      [
        "L",
        "ady"
      ],
      [
        "a",
        "w"
      ],
      [
        "e",
        "ared"
      ],
      [
        "f",
        "ast"
      ],
      [
        "f",
        "ully"
      ],
      [
        "s",
        "es"
      ],
      [
        "u",
        "ri"
      ],
      [
        "Ġw",
        "a"
      ],
      [
        "re",
        "ady"
      ],
      [
        "er",
        "ing"
      ],
      [
        "Ġde",
        "cl"
      ],
      [
        "ĠH",
        "ertfordshire"
      ],
      [
        "Ġam",
        "iable"
      ],
      [
        "ort",
        "un"
      ],
      [
        "ie",
        "ce"
      ],
      [
        "ru",
        "pt"
      ],
      [
        "ound",
        "s"
      ],
      [
        "ĠP",
        "hilips"
      ],
      [
        "ĠT",
        "o"
      ],
      [
        "Ġinv",
        "itation"
      ],
      [
        "Ġusu",
        "al"
      ],
      [
        "a",
        "im"
      ],
      [
        "a",
        "cy"
      ],
      [
        "a",
        "ctly"
      ],
      [
        "f",
        "rom"
      ],
      [
        "f",
        "eel"
      ],
      [
        "m",
        "ing"
      ],
      [
        "o",
        "g"
      ],
      [
        "p",
        "ose"
      ],
      [
        "s",
        "id"
      ],
      [
        "Ġs",
        "ituation"
      ],
      [
        "Ġn",
        "ight"
      ],
      [
        "Ġbe",
        "yond"
      ],
      [
        "Ġe",
        "arly"
      ],
      [
        "Ġl",
        "o"
      ],
      [
        "Ġth",
        "ings"
      ],
      [
        "Ġde",
        "c"
      ],
      [
        "Ġne",
        "ither"
      ],
      [
        "th",
        "is"
      ],
      [
        "Ġam",
        "ong"
      ],
      [
        "ra",
        "ce"
      ],
      [
        "us",
        "ion"
      ],
      [
        "con",
        "d"
      ],
      [
        "ne",
        "y"
      ],
      [
        "ci",
        "ety"
      ],
      [
        "Ġfeel",
        "ing"
      ],
      [
        "Ġsom",
        "etimes"
      ],
      [
        "Ġeng",
        "aged"
      ],
      [
        "Ġser",
        "ious"
      ],
      [
        "Ġchi",
        "ld"
      ],
      [
        "Ġinqu",
        "ir"
      ],
      [
        "eng",
        "th"
      ],
      [
        "Ġmere",
        "ly"
      ],
      [
        "h",
        "y"
      ],
      [
        "i",
        "ld"
      ],
      [
        "i",
        "ence"
      ],
      [
        "n",
        "ight"
      ],
      [
        "p",
        "ter"
      ],
      [
        "in",
        "ter"
      ],
      [
        "Ġs",
        "light"
      ],
      [
        "en",
        "ance"
      ],
      [
        "Ġb",
        "ook"
      ],
      [
        "Ġc",
        "ase"
      ],
      [
        "Ġin",
        "s"
      ],
      [
        "ot",
        "e"
      ],
      [
        "Ġe",
        "ager"
      ],
      [
        "Ġat",
        "tempt"
      ],
      [
        "Ġsu",
        "m"
      ],
      [
        "ĠH",
        "urst"
      ],
      [
        "th",
        "ough"
      ],
      [
        "Ġaf",
        "raid"
      ],
      [
        "itt",
        "ing"
      ],
      [
        "Ġal",
        "so"
      ],
      [
        "Ġsay",
        "ing"
      ],
      [
        "Ġpo",
        "or"
      ],
      [
        "ci",
        "ous"
      ],
      [
        "we",
        "ll"
      ],
      [
        "Ġdes",
        "ign"
      ],
      [
        "Ġansw",
        "ered"
      ],
      [
        "du",
        "ct"
      ],
      [
        "ĠĠĠĠĠĠĠĠĠĠĠĠĠĠĠĠĠĠĠĠĠĠĠĠĠĠĠĠĠĠĠĠĠĠĠĠĠĠĠĠ",
        "ĠĠĠĠ"
      ],
      [
        "Ġspir",
        "its"
      ],
      [
        "W",
        "ickham"
      ],
      [
        "h",
        "um"
      ],
      [
        "s",
        "uch"
      ],
      [
        "u",
        "ally"
      ],
      [
        "w",
        "here"
      ],
      [
        "Ġ",
        "("
      ],
      [
        "Ġ",
        "J"
      ],
      [
        "Ġ",
        "ra"
      ],
      [
        "Ġt",
        "en"
      ],
      [
        "Ġa",
        "ir"
      ],
      [
        "ha",
        "pter"
      ],
      [
        "Ġm",
        "on"
      ],
      [
        "Ġm",
        "aking"
      ],
      [
        "Ġc",
        "he"
      ],
      [
        "Ġf",
        "ine"
      ],
      [
        "Ġp",
        "at"
      ],
      [
        "Ġe",
        "le"
      ],
      [
        "Ġe",
        "ld"
      ],
      [
        "if",
        "ied"
      ],
      [
        "Ġst",
        "rong"
      ],
      [
        "itt",
        "ed"
      ],
      [
        "ĠA",
        "t"
      ],
      [
        "Ġv",
        "iew"
      ],
      [
        "Ġse",
        "lf"
      ],
      [
        "Ġr",
        "an"
      ],
      [
        "Ġapp",
        "ro"
      ],
      [
        "uc",
        "k"
      ],
      [
        "led",
        "ge"
      ],
      [
        "ĠT",
        "his"
      ],
      [
        "Ġar",
        "rival"
      ],
      [
        "Ġspeak",
        "ing"
      ],
      [
        "iffere",
        "nce"
      ],
      [
        "ĠO",
        "n"
      ],
      [
        "ĠX",
        "X"
      ],
      [
        "Ġsurpr",
        "ised"
      ],
      [
        "Ġgl",
        "ad"
      ],
      [
        "Ġnew",
        "s"
      ],
      [
        "Ġmin",
        "utes"
      ],
      [
        "Ġdin",
        "ner"
      ],
      [
        "Ġdeterm",
        "ined"
      ],
      [
        "Ġendea",
        "vour"
      ],
      [
        "Ġwis",
        "hes"
      ],
      [
        "_",
        "."
      ],
      [
        "c",
        "an"
      ],
      [
        "i",
        "ct"
      ],
      [
        "k",
        "ing"
      ],
      [
        "m",
        "ar"
      ],
      [
        "m",
        "ore"
      ],
      [
        "r",
        "on"
      ],
      [
        "s",
        "ister"
      ],
      [
        "y",
        "ing"
      ],
      [
        "Ġt",
        "aken"
      ],
      [
        "Ġn",
        "ame"
      ],
      [
        "Ġd",
        "ance"
      ],
      [
        "Ġd",
        "iff"
      ],
      [
        "Ġp",
        "ar"
      ],
      [
        "se",
        "e"
      ],
      [
        "Ġl",
        "ar"
      ],
      [
        "Ġl",
        "ength"
      ],
      [
        "Ġth",
        "us"
      ],
      [
        "Ġcon",
        "ce"
      ],
      [
        "ro",
        "ss"
      ],
      [
        "ust",
        "en"
      ],
      [
        "Ġde",
        "f"
      ],
      [
        "ak",
        "fast"
      ],
      [
        "Ġex",
        "c"
      ],
      [
        "Ġdis",
        "appoint"
      ],
      [
        "Ġexp",
        "l"
      ],
      [
        "Ġj",
        "ud"
      ],
      [
        "Ġevery",
        "body"
      ],
      [
        "not",
        "hing"
      ],
      [
        "be",
        "en"
      ],
      [
        "Ġapp",
        "eared"
      ],
      [
        "Ġday",
        "s"
      ],
      [
        "Ġbelie",
        "ved"
      ],
      [
        "ĠF",
        "itzwilliam"
      ],
      [
        "He",
        "ading"
      ],
      [
        "Ġword",
        "s"
      ],
      [
        "Ġsurpr",
        "ise"
      ],
      [
        "Ġsil",
        "ence"
      ],
      [
        "ute",
        "ly"
      ],
      [
        "Ġequ",
        "al"
      ],
      [
        "Ġfre",
        "qu"
      ],
      [
        "Ġwee",
        "k"
      ],
      [
        "Ġsens",
        "ible"
      ],
      [
        "tell",
        "ig"
      ],
      [
        "ortun",
        "ity"
      ],
      [
        ":",
        "--"
      ],
      [
        "j",
        "oy"
      ],
      [
        "k",
        "en"
      ],
      [
        "u",
        "al"
      ],
      [
        "Ġ",
        "2"
      ],
      [
        "Ġ",
        "ro"
      ],
      [
        "Ġt",
        "ri"
      ],
      [
        "Ġs",
        "ir"
      ],
      [
        "Ġc",
        "redit"
      ],
      [
        "Ġbe",
        "ar"
      ],
      [
        "an",
        "cy"
      ],
      [
        "Ġy",
        "es"
      ],
      [
        "Ġe",
        "arn"
      ],
      [
        "ut",
        "ion"
      ],
      [
        "Ġwith",
        "in"
      ],
      [
        "ad",
        "ed"
      ],
      [
        "Ġall",
        "ow"
      ],
      [
        "Ġme",
        "ant"
      ],
      [
        "Ġde",
        "pend"
      ],
      [
        "Ġk",
        "eep"
      ],
      [
        "Ġex",
        "actly"
      ],
      [
        "ĠC",
        "hapter"
      ],
      [
        "ĠA",
        "usten"
      ],
      [
        "Ġal",
        "one"
      ],
      [
        "us",
        "ed"
      ],
      [
        "Ġpro",
        "per"
      ],
      [
        "hi",
        "le"
      ],
      [
        "cc",
        "ess"
      ],
      [
        "ire",
        "ly"
      ],
      [
        "Ġint",
        "ro"
      ],
      [
        "Ġadm",
        "ir"
      ],
      [
        "ceed",
        "ingly"
      ],
      [
        "Ġsatisf",
        "a"
      ],
      [
        "sh",
        "ould"
      ],
      [
        "Ġjo",
        "ined"
      ],
      [
        "Ġhigh",
        "ly"
      ],
      [
        "Ġoffic",
        "ers"
      ],
      [
        "Ġdra",
        "w"
      ],
      [
        "Ġrepe",
        "ated"
      ],
      [
        "Ġmon",
        "th"
      ],
      [
        "Ġearn",
        "est"
      ],
      [
        "a",
        "iled"
      ],
      [
        "d",
        "uc"
      ],
      [
        "h",
        "ow"
      ],
      [
        "m",
        "b"
      ],
      [
        "m",
        "or"
      ],
      [
        "he",
        "nd"
      ],
      [
        "in",
        "ci"
      ],
      [
        "re",
        "as"
      ],
      [
        "en",
        "e"
      ],
      [
        "Ġm",
        "aster"
      ],
      [
        "Ġto",
        "ler"
      ],
      [
        "Ġc",
        "or"
      ],
      [
        "Ġc",
        "ap"
      ],
      [
        "Ġf",
        "ive"
      ],
      [
        "Ġin",
        "tellig"
      ],
      [
        "Ġre",
        "comm"
      ],
      [
        "Ġfor",
        "ward"
      ],
      [
        "Ġl",
        "ost"
      ],
      [
        "Ġwh",
        "y"
      ],
      [
        "Ġu",
        "se"
      ],
      [
        "Ġne",
        "ed"
      ],
      [
        "--",
        "--"
      ],
      [
        "Ġst",
        "ran"
      ],
      [
        "Ġthem",
        "selves"
      ],
      [
        "un",
        "s"
      ],
      [
        "one",
        "y"
      ],
      [
        "Ġor",
        "d"
      ],
      [
        "Ġag",
        "o"
      ],
      [
        "Ġse",
        "cond"
      ],
      [
        "ort",
        "ance"
      ],
      [
        "be",
        "ing"
      ],
      [
        "Ġafter",
        "wards"
      ],
      [
        "ach",
        "ment"
      ],
      [
        "Ġfa",
        "ce"
      ],
      [
        "Ġbr",
        "ing"
      ],
      [
        "Ġrem",
        "ark"
      ],
      [
        "Ġass",
        "ured"
      ],
      [
        "Ġser",
        "vant"
      ],
      [
        "Ġparticul",
        "arly"
      ],
      [
        "Ġseem",
        "s"
      ],
      [
        "Ġobli",
        "ged"
      ],
      [
        "gr",
        "at"
      ],
      [
        "dd",
        "en"
      ],
      [
        "a",
        "ving"
      ],
      [
        "f",
        "riend"
      ],
      [
        "u",
        "nd"
      ],
      [
        "u",
        "ll"
      ],
      [
        "w",
        "or"
      ],
      [
        "is",
        "ing"
      ],
      [
        "Ġc",
        "o"
      ],
      [
        "Ġc",
        "le"
      ],
      [
        "Ġh",
        "ur"
      ],
      [
        "ow",
        "s"
      ],
      [
        "al",
        "th"
      ],
      [
        "al",
        "ity"
      ],
      [
        "Ġsu",
        "per"
      ],
      [
        "Ġcon",
        "duct"
      ],
      [
        "Ġall",
        "owed"
      ],
      [
        "oo",
        "l"
      ],
      [
        "ĠD",
        "o"
      ],
      [
        "Ġli",
        "ked"
      ],
      [
        "pe",
        "ci"
      ],
      [
        "ive",
        "ly"
      ],
      [
        "Ġal",
        "ready"
      ],
      [
        "Ġsp",
        "ite"
      ],
      [
        "con",
        "t"
      ],
      [
        "Ġcomp",
        "le"
      ],
      [
        "Ġoff",
        "er"
      ],
      [
        "Ġent",
        "irely"
      ],
      [
        "Ġac",
        "know"
      ],
      [
        "ĠT",
        "h"
      ],
      [
        "Ġthought",
        "s"
      ],
      [
        "cei",
        "ving"
      ],
      [
        "Ġacc",
        "om"
      ],
      [
        "him",
        "self"
      ],
      [
        "Ġappear",
        "ance"
      ],
      [
        "Ġbeaut",
        "y"
      ],
      [
        "Ġaston",
        "ishment"
      ],
      [
        "uns",
        "ford"
      ],
      [
        "A",
        "s"
      ],
      [
        "H",
        "is"
      ],
      [
        "T",
        "o"
      ],
      [
        "W",
        "ith"
      ],
      [
        "a",
        "il"
      ],
      [
        "m",
        "ust"
      ],
      [
        "n",
        "o"
      ],
      [
        "p",
        "he"
      ],
      [
        "Ġs",
        "on"
      ],
      [
        "er",
        "by"
      ],
      [
        "Ġm",
        "ot"
      ],
      [
        "Ġn",
        "ature"
      ],
      [
        "Ġh",
        "or"
      ],
      [
        "Ġha",
        "st"
      ],
      [
        "Ġp",
        "ra"
      ],
      [
        "Ġe",
        "ffect"
      ],
      [
        "ver",
        "al"
      ],
      [
        "Ġre",
        "sent"
      ],
      [
        "Ġso",
        "ciety"
      ],
      [
        "ur",
        "ther"
      ],
      [
        "ak",
        "es"
      ],
      [
        "ag",
        "es"
      ],
      [
        "Ġex",
        "cept"
      ],
      [
        "ure",
        "s"
      ],
      [
        "Ġwho",
        "lly"
      ],
      [
        "Ġknow",
        "ing"
      ],
      [
        "Ġpro",
        "f"
      ],
      [
        "of",
        "f"
      ],
      [
        "Ġrep",
        "ly"
      ],
      [
        "Ġint",
        "im"
      ],
      [
        "Ġsupp",
        "osed"
      ],
      [
        "Ġkind",
        "ness"
      ],
      [
        "Ġinst",
        "antly"
      ],
      [
        "Ġch",
        "oo"
      ],
      [
        "Ġresol",
        "ved"
      ],
      [
        "Ġdire",
        "ct"
      ],
      [
        "ix",
        "ed"
      ],
      [
        "Ġeas",
        "ily"
      ],
      [
        "Ġpret",
        "ty"
      ],
      [
        "vo",
        "id"
      ],
      [
        "Ġnecess",
        "ary"
      ],
      [
        "Ġnatur",
        "al"
      ],
      [
        "peci",
        "ally"
      ],
      [
        "erby",
        "shire"
      ],
      [
        "b",
        "ar"
      ],
      [
        "g",
        "ree"
      ],
      [
        "m",
        "a"
      ],
      [
        "m",
        "uch"
      ],
      [
        "p",
        "ri"
      ],
      [
        "s",
        "om"
      ],
      [
        "Ġ",
        "Your"
      ],
      [
        "in",
        "ary"
      ],
      [
        "Ġw",
        "at"
      ],
      [
        "Ġs",
        "ing"
      ],
      [
        "ou",
        "ble"
      ],
      [
        "âĢ",
        "ĺ"
      ],
      [
        "ĠĠ",
        "Ġ"
      ],
      [
        "Ġf",
        "in"
      ],
      [
        "Ġd",
        "uring"
      ],
      [
        "or",
        "s"
      ],
      [
        "an",
        "ity"
      ],
      [
        "ce",
        "ll"
      ],
      [
        "Ġe",
        "vent"
      ],
      [
        "se",
        "mb"
      ],
      [
        "Ġre",
        "ceive"
      ],
      [
        "Ġl",
        "atter"
      ],
      [
        "Ġth",
        "ousand"
      ],
      [
        "ri",
        "e"
      ],
      [
        "Ġcom",
        "mon"
      ],
      [
        "Ġwhat",
        "ever"
      ],
      [
        "Ġany",
        "body"
      ],
      [
        "Ġsh",
        "o"
      ],
      [
        "Ġdis",
        "g"
      ],
      [
        "Ġab",
        "sence"
      ],
      [
        "Ġpro",
        "pos"
      ],
      [
        "ress",
        "ing"
      ],
      [
        "ĠN",
        "ot"
      ],
      [
        "Ġsc",
        "he"
      ],
      [
        "right",
        "on"
      ],
      [
        "wh",
        "o"
      ],
      [
        "ign",
        "or"
      ],
      [
        "Ġlook",
        "ing"
      ],
      [
        "Ġmat",
        "ch"
      ],
      [
        "Ġgi",
        "ving"
      ],
      [
        "du",
        "ce"
      ],
      [
        "Ġobser",
        "ved"
      ],
      [
        "Ġhour",
        "s"
      ],
      [
        "Ġsil",
        "ent"
      ],
      [
        "Ġopp",
        "ortunity"
      ],
      [
        "Ġquest",
        "ion"
      ],
      [
        "ib",
        "ility"
      ],
      [
        "Ġanx",
        "ious"
      ],
      [
        "Ġimag",
        "ine"
      ],
      [
        "Ġconsequ",
        "ence"
      ],
      [
        "Ġcompli",
        "ment"
      ],
      [
        "uri",
        "os"
      ],
      [
        "phe",
        "w"
      ],
      [
        "C",
        "harlotte"
      ],
      [
        "H",
        "er"
      ],
      [
        "N",
        "ot"
      ],
      [
        "c",
        "ha"
      ],
      [
        "e",
        "y"
      ],
      [
        "e",
        "ed"
      ],
      [
        "g",
        "ing"
      ],
      [
        "m",
        "er"
      ],
      [
        "m",
        "ay"
      ],
      [
        "t",
        "han"
      ],
      [
        "Ġ",
        "ve"
      ],
      [
        "Ġ",
        "Oh"
      ],
      [
        "Ġt",
        "rue"
      ],
      [
        "Ġa",
        "uth"
      ],
      [
        "Ġw",
        "ind"
      ],
      [
        "Ġs",
        "end"
      ],
      [
        "re",
        "g"
      ],
      [
        "re",
        "hend"
      ],
      [
        "ou",
        "n"
      ],
      [
        "on",
        "ly"
      ],
      [
        "Ġm",
        "oney"
      ],
      [
        "Ġp",
        "ol"
      ],
      [
        "Ġp",
        "ounds"
      ],
      [
        "Ġg",
        "ot"
      ],
      [
        "her",
        "self"
      ],
      [
        "ab",
        "ility"
      ],
      [
        "Ġl",
        "augh"
      ],
      [
        "al",
        "s"
      ],
      [
        "al",
        "se"
      ],
      [
        "ĠB",
        "righton"
      ],
      [
        "our",
        "ney"
      ],
      [
        "Ġcon",
        "cl"
      ],
      [
        "Eliz",
        "a"
      ],
      [
        "ag",
        "reeable"
      ],
      [
        "Ġex",
        "ceedingly"
      ],
      [
        "ĠH",
        "unsford"
      ],
      [
        "Ġdo",
        "ing"
      ],
      [
        "ol",
        "og"
      ],
      [
        "Ġv",
        "oice"
      ],
      [
        "Ġse",
        "veral"
      ],
      [
        "Ġen",
        "cour"
      ],
      [
        "Ġcomp",
        "an"
      ],
      [
        "Ġhapp",
        "ened"
      ],
      [
        "Ġgreat",
        "er"
      ],
      [
        "Ġpleas",
        "ant"
      ],
      [
        "Ġpr",
        "inci"
      ],
      [
        "Ġbeg",
        "in"
      ],
      [
        "Ġreg",
        "iment"
      ],
      [
        "Ġtr",
        "ust"
      ],
      [
        "Ġadm",
        "ire"
      ],
      [
        "Ġfoll",
        "owed"
      ],
      [
        "Ġacquaint",
        "ed"
      ],
      [
        "Ġcount",
        "enance"
      ],
      [
        "Ġmention",
        "ed"
      ],
      [
        "Ġjo",
        "in"
      ],
      [
        "Ġchi",
        "ef"
      ],
      [
        "br",
        "ary"
      ],
      [
        "Ġpur",
        "pose"
      ],
      [
        "Ġeas",
        "y"
      ],
      [
        "Ġdispos",
        "ition"
      ],
      [
        "Ġbre",
        "akfast"
      ],
      [
        "Ġattent",
        "ions"
      ],
      [
        "duc",
        "ed"
      ],
      [
        "urios",
        "ity"
      ],
      [
        "L",
        "izzy"
      ],
      [
        "e",
        "ad"
      ],
      [
        "i",
        "et"
      ],
      [
        "s",
        "ist"
      ],
      [
        "Ġ",
        "Eliza"
      ],
      [
        "Ġt",
        "erm"
      ],
      [
        "Ġp",
        "u"
      ],
      [
        "Ġth",
        "ing"
      ],
      [
        "Ġsu",
        "sp"
      ],
      [
        "Ġsu",
        "ccess"
      ],
      [
        "ain",
        "ing"
      ],
      [
        "ur",
        "ch"
      ],
      [
        "ic",
        "ation"
      ],
      [
        "Ġde",
        "gree"
      ],
      [
        "Ġne",
        "phew"
      ],
      [
        "ĠD",
        "erbyshire"
      ],
      [
        "Ġst",
        "ate"
      ],
      [
        "Ġli",
        "ving"
      ],
      [
        "un",
        "ate"
      ],
      [
        "ĠS",
        "t"
      ],
      [
        "os",
        "ing"
      ],
      [
        "Ġen",
        "joy"
      ],
      [
        "are",
        "st"
      ],
      [
        "Ġatt",
        "achment"
      ],
      [
        "Ġpleas",
        "ing"
      ],
      [
        "Ġimp",
        "ro"
      ],
      [
        "ach",
        "ing"
      ],
      [
        "Ġyoung",
        "er"
      ],
      [
        "led",
        "ged"
      ],
      [
        "Ġfa",
        "ir"
      ],
      [
        "ĠN",
        "o"
      ],
      [
        "Ġdes",
        "ire"
      ],
      [
        "Ġass",
        "ur"
      ],
      [
        "so",
        "on"
      ],
      [
        "Ġtr",
        "uth"
      ],
      [
        "Ġexpress",
        "ed"
      ],
      [
        "Ġwalk",
        "ing"
      ],
      [
        "Ġlist",
        "en"
      ],
      [
        "Ġgrat",
        "itude"
      ],
      [
        "Ġinform",
        "ation"
      ],
      [
        "Ġele",
        "g"
      ],
      [
        "Ġadmir",
        "ation"
      ],
      [
        "grat",
        "ul"
      ],
      [
        "Ġve",
        "x"
      ],
      [
        "Ġauth",
        "or"
      ],
      [
        "a",
        "z"
      ],
      [
        "a",
        "ffect"
      ],
      [
        "d",
        "id"
      ],
      [
        "g",
        "ment"
      ],
      [
        "i",
        "li"
      ],
      [
        "i",
        "ety"
      ],
      [
        "j",
        "ust"
      ],
      [
        "l",
        "ing"
      ],
      [
        "l",
        "ong"
      ],
      [
        "l",
        "ittle"
      ],
      [
        "r",
        "ay"
      ],
      [
        "w",
        "ent"
      ],
      [
        "Ġ",
        "ut"
      ],
      [
        "Ġ",
        "ri"
      ],
      [
        "Ġa",
        "p"
      ],
      [
        "Ġw",
        "arm"
      ],
      [
        "re",
        "et"
      ],
      [
        "Ġm",
        "ort"
      ],
      [
        "Ġc",
        "old"
      ],
      [
        "Ġf",
        "ancy"
      ],
      [
        "le",
        "s"
      ],
      [
        "Ġd",
        "read"
      ],
      [
        "es",
        "day"
      ],
      [
        "ent",
        "s"
      ],
      [
        "Ġsu",
        "dden"
      ],
      [
        "Ġu",
        "nd"
      ],
      [
        "ĠL",
        "et"
      ],
      [
        "ic",
        "ient"
      ],
      [
        "ess",
        "ion"
      ],
      [
        "The",
        "re"
      ],
      [
        "ag",
        "ain"
      ],
      [
        "ĠH",
        "ad"
      ],
      [
        "Ġst",
        "and"
      ],
      [
        "th",
        "ink"
      ],
      [
        "hen",
        "s"
      ],
      [
        "est",
        "ed"
      ],
      [
        "Ġdis",
        "like"
      ],
      [
        "itt",
        "en"
      ],
      [
        "ĠA",
        "fter"
      ],
      [
        "Ġknow",
        "ledge"
      ],
      [
        "Ġpro",
        "ceed"
      ],
      [
        "Ġsp",
        "ent"
      ],
      [
        "Ġcomp",
        "ar"
      ],
      [
        "Ġatt",
        "ended"
      ],
      [
        "Ġent",
        "reat"
      ],
      [
        "Ġdes",
        "cri"
      ],
      [
        "Ġadd",
        "ress"
      ],
      [
        "Ġrem",
        "ained"
      ],
      [
        "Ġass",
        "ist"
      ],
      [
        "iv",
        "es"
      ],
      [
        "ĠĠĠĠĠĠĠĠĠĠĠĠĠĠĠĠĠĠĠĠĠĠĠĠĠĠĠĠĠĠĠĠ",
        "ĠĠĠĠĠĠĠĠĠĠĠĠĠĠĠĠ"
      ],
      [
        "Ġreg",
        "ret"
      ],
      [
        "Ġhear",
        "ing"
      ],
      [
        "Ġocc",
        "ur"
      ],
      [
        "ud",
        "ed"
      ],
      [
        "pl",
        "oy"
      ],
      [
        "Ġrel",
        "ation"
      ],
      [
        "Ġrel",
        "ations"
      ],
      [
        "Ġfoll",
        "owing"
      ],
      [
        "Ġmarry",
        "ing"
      ],
      [
        "Ġem",
        "ploy"
      ],
      [
        "pleas",
        "ure"
      ],
      [
        "Ġinter",
        "rupt"
      ],
      [
        "Ġchan",
        "ge"
      ],
      [
        "Ġlist",
        "ened"
      ],
      [
        "Ġhop",
        "es"
      ],
      [
        "Ġprob",
        "ably"
      ],
      [
        "Ġpersu",
        "aded"
      ],
      [
        "Ġtem",
        "per"
      ],
      [
        "Ġneighbour",
        "hood"
      ],
      [
        "Ġprevent",
        "ed"
      ],
      [
        "Ġchild",
        "ren"
      ],
      [
        "Ġlar",
        "ge"
      ],
      [
        "Ġsatisfa",
        "ction"
      ],
      [
        "Ġpra",
        "ise"
      ],
      [
        "C",
        "ollins"
      ],
      [
        "W",
        "ell"
      ],
      [
        "b",
        "et"
      ],
      [
        "f",
        "ather"
      ],
      [
        "k",
        "ind"
      ],
      [
        "l",
        "ook"
      ],
      [
        "s",
        "ur"
      ],
      [
        "t",
        "ed"
      ],
      [
        "u",
        "di"
      ],
      [
        "v",
        "ation"
      ],
      [
        "Ġs",
        "ake"
      ],
      [
        "Ġs",
        "ix"
      ],
      [
        "re",
        "me"
      ],
      [
        "re",
        "ason"
      ],
      [
        "Ġm",
        "ile"
      ],
      [
        "nd",
        "eed"
      ],
      [
        "Ġhe",
        "alth"
      ],
      [
        "Ġf",
        "ull"
      ],
      [
        "Ġf",
        "alse"
      ],
      [
        "at",
        "ive"
      ],
      [
        "Ġre",
        "j"
      ],
      [
        "Ġg",
        "rie"
      ],
      [
        "ad",
        "am"
      ],
      [
        "Ġcon",
        "st"
      ],
      [
        "Ġcon",
        "gratul"
      ],
      [
        "ic",
        "ed"
      ],
      [
        "ic",
        "al"
      ],
      [
        "if",
        "ul"
      ],
      [
        "Ġne",
        "g"
      ],
      [
        "ard",
        "on"
      ],
      [
[...]
